{
  "version": "1.0",
  "truncation": null,
  "padding": null,
  "added_tokens": [],
  "normalizer": null,
  "pre_tokenizer": {
    "type": "ByteLevel",
    "add_prefix_space": false,
    "trim_offsets": true,
    "use_regex": true
  },
  "post_processor": null,
  "decoder": {
    "type": "ByteLevel",
    "add_prefix_space": true,
    "trim_offsets": true,
    "use_regex": true
  },
  "model": {
    "type": "BPE",
    "dropout": null,
    "unk_token": null,
    "continuing_subword_prefix": null,
    "end_of_word_suffix": null,
    "fuse_unk": false,
    "byte_fallback": false,
    "ignore_merges": false,
    "vocab": {
      "!": 0,
      "\"": 1,
      "#": 2,
      "$": 3,
      "%": 4,
      "&": 5,
      "'": 6,
      "(": 7,
      ")": 8,
      "*": 9,
      "+": 10,
      ",": 11,
      "-": 12,
      ".": 13,
      "/": 14,
      "0": 15,
      "1": 16,
      "2": 17,
      "3": 18,
      "4": 19,
      "5": 20,
      "6": 21,
      "7": 22,
      "8": 23,
      "9": 24,
      ":": 25,
      ";": 26,
      "<": 27,
      "=": 28,
      ">": 29,
      "?": 30,
      "@": 31,
      "A": 32,
      "B": 33,
      "C": 34,
      "D": 35,
      "E": 36,
      "F": 37,
      "G": 38,
      "H": 39,
      "I": 40,
      "J": 41,
      "K": 42,
      "L": 43,
      "M": 44,
      "N": 45,
      "O": 46,
      "P": 47,
      "Q": 48,
      "R": 49,
      "S": 50,
      "T": 51,
      "U": 52,
      "V": 53,
      "W": 54,
      "X": 55,
      "Y": 56,
      "Z": 57,
      "[": 58,
      "\\": 59,
      "]": 60,
      "^": 61,
      "_": 62,
      "`": 63,
      "a": 64,
      "b": 65,
      "c": 66,
      "d": 67,
      "e": 68,
      "f": 69,
      "g": 70,
      "h": 71,
      "i": 72,
      "j": 73,
      "k": 74,
      "l": 75,
      "m": 76,
      "n": 77,
      "o": 78,
      "p": 79,
      "q": 80,
      "r": 81,
      "s": 82,
      "t": 83,
      "u": 84,
      "v": 85,
      "w": 86,
      "x": 87,
      "y": 88,
      "z": 89,
      "{": 90,
      "|": 91,
      "}": 92,
      "~": 93,
      "¡": 94,
      "¢": 95,
      "£": 96,
      "¤": 97,
      "¥": 98,
      "¦": 99,
      "§": 100,
      "¨": 101,
      "©": 102,
      "ª": 103,
      "«": 104,
      "¬": 105,
      "®": 106,
      "¯": 107,
      "°": 108,
      "±": 109,
      "²": 110,
      "³": 111,
      "´": 112,
      "µ": 113,
      "¶": 114,
      "·": 115,
      "¸": 116,
      "¹": 117,
      "º": 118,
      "»": 119,
      "¼": 120,
      "½": 121,
      "¾": 122,
      "¿": 123,
      "À": 124,
      "Á": 125,
      "Â": 126,
      "Ã": 127,
      "Ä": 128,
      "Å": 129,
      "Æ": 130,
      "Ç": 131,
      "È": 132,
      "É": 133,
      "Ê": 134,
      "Ë": 135,
      "Ì": 136,
      "Í": 137,
      "Î": 138,
      "Ï": 139,
      "Ð": 140,
      "Ñ": 141,
      "Ò": 142,
      "Ó": 143,
      "Ô": 144,
      "Õ": 145,
      "Ö": 146,
      "×": 147,
      "Ø": 148,
      "Ù": 149,
      "Ú": 150,
      "Û": 151,
      "Ü": 152,
      "Ý": 153,
      "Þ": 154,
      "ß": 155,
      "à": 156,
      "á": 157,
      "â": 158,
      "ã": 159,
      "ä": 160,
      "å": 161,
      "æ": 162,
      "ç": 163,
      "è": 164,
      "é": 165,
      "ê": 166,
      "ë": 167,
      "ì": 168,
      "í": 169,
      "î": 170,
      "ï": 171,
      "ð": 172,
      "ñ": 173,
      "ò": 174,
      "ó": 175,
      "ô": 176,
      "õ": 177,
      "ö": 178,
      "÷": 179,
      "ø": 180,
      "ù": 181,
      "ú": 182,
      "û": 183,
      "ü": 184,
      "ý": 185,
      "þ": 186,
      "ÿ": 187,
      "Ā": 188,
      "ā": 189,
      "Ă": 190,
      "ă": 191,
      "Ą": 192,
      "ą": 193,
      "Ć": 194,
      "ć": 195,
      "Ĉ": 196,
      "ĉ": 197,
      "Ċ": 198,
      "ċ": 199,
      "Č": 200,
      "č": 201,
      "Ď": 202,
      "ď": 203,
      "Đ": 204,
      "đ": 205,
      "Ē": 206,
      "ē": 207,
      "Ĕ": 208,
      "ĕ": 209,
      "Ė": 210,
      "ė": 211,
      "Ę": 212,
      "ę": 213,
      "Ě": 214,
      "ě": 215,
      "Ĝ": 216,
      "ĝ": 217,
      "Ğ": 218,
      "ğ": 219,
      "Ġ": 220,
      "ġ": 221,
      "Ģ": 222,
      "ģ": 223,
      "Ĥ": 224,
      "ĥ": 225,
      "Ħ": 226,
      "ħ": 227,
      "Ĩ": 228,
      "ĩ": 229,
      "Ī": 230,
      "ī": 231,
      "Ĭ": 232,
      "ĭ": 233,
      "Į": 234,
      "į": 235,
      "İ": 236,
      "ı": 237,
      "Ĳ": 238,
      "ĳ": 239,
      "Ĵ": 240,
      "ĵ": 241,
      "Ķ": 242,
      "ķ": 243,
      "ĸ": 244,
      "Ĺ": 245,
      "ĺ": 246,
      "Ļ": 247,
      "ļ": 248,
      "Ľ": 249,
      "ľ": 250,
      "Ŀ": 251,
      "ŀ": 252,
      "Ł": 253,
      "ł": 254,
      "Ń": 255,
      "Ġt": 256,
      "he": 257,
      "Ġa": 258,
      "in": 259,
      "Ġs": 260,
      "Ġw": 261,
      "Ġthe": 262,
      "re": 263,
      "ou": 264,
      "Ġh": 265,
      "ed": 266,
      "on": 267,
      "ing": 268,
      "er": 269,
      "ar": 270,
      "nd": 271,
      "Ġb": 272,
      "Ġ\"": 273,
      "Ġf": 274,
      "Ġo": 275,
      "ĠH": 276,
      "at": 277,
      "is": 278,
      "Ġto": 279,
      "it": 280,
      "Ġc": 281,
      "as": 282,
      "or": 283,
      "ll": 284,
      "id": 285,
      "Ġhe": 286,
      "Ġd": 287,
      "en": 288,
      "Ġm": 289,
      "Ġl": 290,
      "Ġand": 291,
      "Ġth": 292,
      "Ġof": 293,
      "Ġ.": 294,
      "ry": 295,
      "Ġp": 296,
      "es": 297,
      "Ġha": 298,
      "Ġin": 299,
      "Ġg": 300,
      "an": 301,
      "Ġn": 302,
      "le": 303,
      "arry": 304,
      "ow": 305,
      "Ġsa": 306,
      "ly": 307,
      "ĠHarry": 308,
      "ot": 309,
      "Ġy": 310,
      "om": 311,
      "Ġwas": 312,
      "Ġbe": 313,
      "gh": 314,
      "'s": 315,
      "Ġsaid": 316,
      "ac": 317,
      "Ġe": 318,
      "ld": 319,
      "Ġyou": 320,
      "Ġhis": 321,
      "im": 322,
      "us": 323,
      "ve": 324,
      "oo": 325,
      "Ġst": 326,
      "Ġit": 327,
      "ĠI": 328,
      "Ġon": 329,
      "ic": 330,
      "et": 331,
      ",\"": 332,
      "ver": 333,
      "ion": 334,
      "ro": 335,
      "Ġwh": 336,
      "ir": 337,
      "Ġhad": 338,
      "Ġthat": 339,
      "ut": 340,
      "ght": 341,
      "âĢ": 342,
      "âĢĶ": 343,
      "ĠM": 344,
      "out": 345,
      "ĠâĢĶ": 346,
      "Ġwe": 347,
      "ent": 348,
      "ĠT": 349,
      "ad": 350,
      "Ġat": 351,
      "Ġu": 352,
      "Ġas": 353,
      "ĠS": 354,
      "Ġre": 355,
      "ur": 356,
      "al": 357,
      "ĠD": 358,
      "ore": 359,
      "se": 360,
      "Ġhim": 361,
      "?\"": 362,
      "ag": 363,
      "st": 364,
      "ri": 365,
      "ĠR": 366,
      "'t": 367,
      "Ġwit": 368,
      "ke": 369,
      "ch": 370,
      "ay": 371,
      "ook": 372,
      "ould": 373,
      "Ġwith": 374,
      "red": 375,
      "Ġan": 376,
      "Ġfor": 377,
      "am": 378,
      "Ġse": 379,
      "her": 380,
      "um": 381,
      "ĠP": 382,
      "ter": 383,
      "pp": 384,
      "all": 385,
      "Ġnot": 386,
      "ĠRon": 387,
      "ĠThe": 388,
      "ill": 389,
      "ack": 390,
      "rou": 391,
      "ard": 392,
      "ĠA": 393,
      ".\"": 394,
      "led": 395,
      "Ġsh": 396,
      "Ġk": 397,
      "erm": 398,
      "!\"": 399,
      "ĠHe": 400,
      "pe": 401,
      "Ġher": 402,
      "ain": 403,
      "em": 404,
      "Ġlook": 405,
      "ĠW": 406,
      "ione": 407,
      "ermione": 408,
      "Ġup": 409,
      "Ġfr": 410,
      "ĠHermione": 411,
      "Ġdo": 412,
      "ight": 413,
      "Ġthey": 414,
      "ess": 415,
      "Ġout": 416,
      "ce": 417,
      "un": 418,
      "and": 419,
      "ind": 420,
      "ge": 421,
      "ĠB": 422,
      "Ġwere": 423,
      "Ġme": 424,
      "Ġne": 425,
      "Ġkn": 426,
      "Ġthem": 427,
      "to": 428,
      "ted": 429,
      "il": 430,
      "ĠG": 431,
      "Ġr": 432,
      "Ġfe": 433,
      "ĠC": 434,
      "Ġall": 435,
      "Ġbut": 436,
      "ak": 437,
      "if": 438,
      "Ġshe": 439,
      "Ġhave": 440,
      "Ġfrom": 441,
      "ĠF": 442,
      "Ġj": 443,
      "umb": 444,
      "hing": 445,
      "ust": 446,
      "Ġgo": 447,
      "ck": 448,
      "ome": 449,
      "very": 450,
      "ood": 451,
      "ell": 452,
      "Ġso": 453,
      "ast": 454,
      "hed": 455,
      "one": 456,
      "Ġwhe": 457,
      "ble": 458,
      "lo": 459,
      "Ġback": 460,
      "qu": 461,
      "umbled": 462,
      "ort": 463,
      "Ġli": 464,
      "Ġinto": 465,
      "ide": 466,
      "own": 467,
      "ĠL": 468,
      "Ġdid": 469,
      "umbledore": 470,
      "Ġwho": 471,
      "Ġwhat": 472,
      "art": 473,
      "Ġcould": 474,
      "Ġv": 475,
      "ud": 476,
      "round": 477,
      "ant": 478,
      "Ġbeen": 479,
      "rid": 480,
      "Ġis": 481,
      "Ġthou": 482,
      "ĠDumbledore": 483,
      "Ġab": 484,
      "Ġle": 485,
      "Ġex": 486,
      "ink": 487,
      "our": 488,
      "Ġag": 489,
      "Ġno": 490,
      "ist": 491,
      "lf": 492,
      "ra": 493,
      "Ġro": 494,
      "ice": 495,
      "ous": 496,
      "ct": 497,
      "ĠâĢĶ\"": 498,
      "Ġal": 499,
      "ong": 500,
      "Ġde": 501,
      "ff": 502,
      "You": 503,
      "ul": 504,
      "ace": 505,
      "Ġthis": 506,
      "oy": 507,
      "Ġover": 508,
      "ers": 509,
      "ss": 510,
      "ley": 511,
      "Ġwould": 512,
      "ked": 513,
      "Ġthere": 514,
      "hat": 515,
      "Ġsu": 516,
      "ig": 517,
      "Ġknow": 518,
      "na": 519,
      "Ġtheir": 520,
      "ep": 521,
      "old": 522,
      "Ġpo": 523,
      "Ġdown": 524,
      "Ġabout": 525,
      "Ġoff": 526,
      "Ġany": 527,
      "iz": 528,
      "ven": 529,
      "Ġagain": 530,
      "el": 531,
      "Ġch": 532,
      "Ġone": 533,
      "ther": 534,
      "Ġlike": 535,
      "ĠN": 536,
      "way": 537,
      "Ġlooked": 538,
      "urn": 539,
      "Ġsp": 540,
      "Ġnow": 541,
      "Ġqu": 542,
      "ting": 543,
      "ick": 544,
      "Ġ.\"": 545,
      "Ġcon": 546,
      "Ġaround": 547,
      "Ġyour": 548,
      "Ġus": 549,
      "ass": 550,
      "Ġun": 551,
      "ie": 552,
      "op": 553,
      "ime": 554,
      "ally": 555,
      "Ġey": 556,
      "are": 557,
      "Ġhand": 558,
      "ĠWe": 559,
      "'ve": 560,
      "ull": 561,
      "Ġby": 562,
      "Ġwor": 563,
      "Ġthink": 564,
      "fess": 565,
      "Ġgot": 566,
      "Ġjust": 567,
      "Ġthen": 568,
      "ĠMr": 569,
      "ered": 570,
      "ĠPro": 571,
      "fessor": 572,
      "Ġcan": 573,
      "ark": 574,
      "agrid": 575,
      "Ġsc": 576,
      "right": 577,
      "ake": 578,
      "Ġtoo": 579,
      "Ġare": 580,
      "Ġbl": 581,
      "est": 582,
      "Ġsee": 583,
      "ward": 584,
      "Ġget": 585,
      "Ġif": 586,
      "reat": 587,
      "ĠV": 588,
      "Ġpl": 589,
      "Ġwhen": 590,
      "Ġcl": 591,
      "up": 592,
      "Ġvery": 593,
      "ĠHagrid": 594,
      "'re": 595,
      "Ġsl": 596,
      "Ġmy": 597,
      "ear": 598,
      "ap": 599,
      "Ġmore": 600,
      "Ġwand": 601,
      "bb": 602,
      "ĠProfessor": 603,
      "Ġor": 604,
      "Ġhead": 605,
      "nape": 606,
      "ame": 607,
      "ĠO": 608,
      "Ġmo": 609,
      "ive": 610,
      "'ll": 611,
      "og": 612,
      "Ġcom": 613,
      "ĠSnape": 614,
      "Ġthough": 615,
      "self": 616,
      "ate": 617,
      "ĠIt": 618,
      "'d": 619,
      "Ġtw": 620,
      "ang": 621,
      "ĠE": 622,
      "asley": 623,
      "Ġtime": 624,
      "Ġsm": 625,
      "ĠWeasley": 626,
      "ound": 627,
      "Ġdoor": 628,
      "Ġstill": 629,
      "pped": 630,
      "ved": 631,
      "Ġhow": 632,
      "rough": 633,
      "Ġvo": 634,
      "ond": 635,
      "Ġeyes": 636,
      "ation": 637,
      "ared": 638,
      "Ġtr": 639,
      "orn": 640,
      "Ġlooking": 641,
      "Ġthan": 642,
      "ving": 643,
      "ius": 644,
      "Ġdon": 645,
      "air": 646,
      "Ġturn": 647,
      "The": 648,
      "Ġface": 649,
      "Ġgl": 650,
      "Ġthrough": 651,
      "ich": 652,
      "Ġsome": 653,
      "fore": 654,
      "ite": 655,
      "Ġright": 656,
      "nder": 657,
      "ath": 658,
      "ure": 659,
      "Ġar": 660,
      "ily": 661,
      "Ġgr": 662,
      "au": 663,
      "alf": 664,
      "Ġgoing": 665,
      "Ġvoice": 666,
      "Ġseem": 667,
      "ave": 668,
      "pt": 669,
      "Ġother": 670,
      "inn": 671,
      "gg": 672,
      "tle": 673,
      "ious": 674,
      "ire": 675,
      "ened": 676,
      "Ġwhich": 677,
      "ree": 678,
      "Ġfl": 679,
      "Ġsay": 680,
      "Ġsw": 681,
      "Ġthought": 682,
      "other": 683,
      "Ġbefore": 684,
      "ling": 685,
      "'m": 686,
      "ĠThey": 687,
      "aus": 688,
      "Ġevery": 689,
      "fter": 690,
      "ol": 691,
      "alfoy": 692,
      "ĠU": 693,
      "omet": 694,
      "ĠPot": 695,
      "Ġman": 696,
      "able": 697,
      "Ġhere": 698,
      "Ġdidn": 699,
      "wn": 700,
      "Ġwill": 701,
      "ĠMalfoy": 702,
      "Ġroom": 703,
      "Ġen": 704,
      "idd": 705,
      "ab": 706,
      "ched": 707,
      "aking": 708,
      "ade": 709,
      "orm": 710,
      "th": 711,
      "Ġop": 712,
      "ft": 713,
      "Ġlong": 714,
      "od": 715,
      "side": 716,
      "Ġpre": 717,
      "ile": 718,
      "What": 719,
      "Ġonly": 720,
      "Ġim": 721,
      "emort": 722,
      "oldemort": 723,
      "ĠK": 724,
      "king": 725,
      "aring": 726,
      "Ġwat": 727,
      "ho": 728,
      "Ġsomet": 729,
      "Ġte": 730,
      "Ġsaw": 731,
      "ts": 732,
      "Ġclo": 733,
      "Ġunder": 734,
      "ĠVoldemort": 735,
      "Ġwhere": 736,
      "Ġhapp": 737,
      "Ġkne": 738,
      "Ġdis": 739,
      "Ġtell": 740,
      "Ġbeh": 741,
      "Ġway": 742,
      "Ġwant": 743,
      "Ġpe": 744,
      "age": 745,
      "row": 746,
      "Ġafter": 747,
      "ried": 748,
      "ather": 749,
      "izard": 750,
      "sed": 751,
      "ment": 752,
      "ves": 753,
      "irius": 754,
      "Ġbec": 755,
      "Ġke": 756,
      "Ġmu": 757,
      "Ġsomething": 758,
      "thing": 759,
      "Ġseemed": 760,
      "Ġapp": 761,
      "Ġlo": 762,
      "Ġhimself": 763,
      "Ġaway": 764,
      "Ġfir": 765,
      "ĠShe": 766,
      "It": 767,
      "Ġlet": 768,
      "ĠPotter": 769,
      "te": 770,
      "Ġlit": 771,
      "Ġbet": 772,
      "Ġbehind": 773,
      "ĠAnd": 774,
      "ause": 775,
      "Ġeven": 776,
      "Ġasked": 777,
      "Ġrem": 778,
      "ect": 779,
      "Ġspe": 780,
      "mb": 781,
      "ĠSirius": 782,
      "ever": 783,
      "Ġtold": 784,
      "Ġturned": 785,
      "He": 786,
      "Ġbr": 787,
      "Ġnever": 788,
      "ated": 789,
      "Ġtoward": 790,
      "lt": 791,
      "ks": 792,
      "Ġlast": 793,
      "Ġcome": 794,
      "Ġac": 795,
      "act": 796,
      "Ġpoin": 797,
      "ĠHog": 798,
      "ĠDe": 799,
      "agic": 800,
      "Ġpro": 801,
      "oment": 802,
      "Ġthing": 803,
      "ance": 804,
      "Ġmuch": 805,
      "Ġmoment": 806,
      "Ġtry": 807,
      "ine": 808,
      "ĠBut": 809,
      "Ġyear": 810,
      "oll": 811,
      "ach": 812,
      "ool": 813,
      "Ġknew": 814,
      "uff": 815,
      "dd": 816,
      "ĠYou": 817,
      "ress": 818,
      "ering": 819,
      "ople": 820,
      "ue": 821,
      "Ġshould": 822,
      "ord": 823,
      "ied": 824,
      "ching": 825,
      "Ġonce": 826,
      "Ġlittle": 827,
      "Ġfirst": 828,
      "Well": 829,
      "Ġsil": 830,
      "arts": 831,
      "Ġsec": 832,
      "ful": 833,
      "ugg": 834,
      "Ġheard": 835,
      "Ġleft": 836,
      "Ġmade": 837,
      "Ġtwo": 838,
      "We": 839,
      "Ġhas": 840,
      "ĠThere": 841,
      "ody": 842,
      "ped": 843,
      "Ġpr": 844,
      "But": 845,
      "ont": 846,
      "ĠMin": 847,
      "Ġwa": 848,
      "Ġbot": 849,
      "ish": 850,
      "ase": 851,
      "Ġfelt": 852,
      "Ġgood": 853,
      "warts": 854,
      "ĠFred": 855,
      "owed": 856,
      "uck": 857,
      "ĠMrs": 858,
      "Ġdes": 859,
      "Ġpeople": 860,
      "les": 861,
      "Ġcont": 862,
      "No": 863,
      "nt": 864,
      "ber": 865,
      "ĠHogwarts": 866,
      "room": 867,
      "ady": 868,
      "ĠNe": 869,
      "ple": 870,
      "Ġho": 871,
      "Ġdark": 872,
      "Ġpull": 873,
      "Ġwell": 874,
      "Ġreally": 875,
      "Ġits": 876,
      "ies": 877,
      "Ġmight": 878,
      "ross": 879,
      "less": 880,
      "Ġatt": 881,
      "Ġ'": 882,
      "udd": 883,
      "Ġarm": 884,
      "Ġtal": 885,
      "Ġsn": 886,
      "ions": 887,
      "ory": 888,
      "Ġwal": 889,
      "itch": 890,
      "hen": 891,
      "ille": 892,
      "Ġflo": 893,
      "Ġwizard": 894,
      "ock": 895,
      "Ġneed": 896,
      "per": 897,
      "ough": 898,
      "rie": 899,
      "upin": 900,
      "ors": 901,
      "xt": 902,
      "Ġstr": 903,
      "Ġfeel": 904,
      "Ġfront": 905,
      "ity": 906,
      "inny": 907,
      "Harry": 908,
      "Ġam": 909,
      "Ġwind": 910,
      "ĠMc": 911,
      "ĠLupin": 912,
      "Qu": 913,
      "Ġdr": 914,
      "Ġsure": 915,
      "ah": 916,
      "ouse": 917,
      "orge": 918,
      "Ġever": 919,
      "ise": 920,
      "Ġent": 921,
      "ose": 922,
      "Ġopen": 923,
      "eorge": 924,
      "Oh": 925,
      "Ġmust": 926,
      "ville": 927,
      "oud": 928,
      "Ġche": 929,
      "And": 930,
      "Ġcr": 931,
      "arm": 932,
      "ĠGeorge": 933,
      "arge": 934,
      "ĠCh": 935,
      "ung": 936,
      "pl": 937,
      "Ġmean": 938,
      "me": 939,
      "Ġold": 940,
      "Ġcame": 941,
      "here": 942,
      "ced": 943,
      "Ġfeet": 944,
      "cy": 945,
      "Ġbecause": 946,
      "ream": 947,
      "Ġhur": 948,
      "Ġput": 949,
      "ign": 950,
      "Ġpass": 951,
      "Ġbel": 952,
      "ĠNeville": 953,
      "Ġimp": 954,
      "Gon": 955,
      "agall": 956,
      "Gonagall": 957,
      "ons": 958,
      "ence": 959,
      "be": 960,
      "unn": 961,
      "ĠGinny": 962,
      "ĠMcGonagall": 963,
      "Ġend": 964,
      "Ġown": 965,
      "rew": 966,
      "Ġfind": 967,
      "ĠQu": 968,
      "eah": 969,
      "Ġcle": 970,
      "anted": 971,
      "Ġtook": 972,
      "Ġter": 973,
      "ourse": 974,
      "Ġbed": 975,
      "Ġbit": 976,
      "Ġday": 977,
      "Ġanything": 978,
      "Ġgreat": 979,
      "Ġsupp": 980,
      "Ġfew": 981,
      "Ġsur": 982,
      "Ġtrying": 983,
      "Ġhard": 984,
      "Ġmake": 985,
      "Ġhel": 986,
      "Ġtable": 987,
      "Ġstand": 988,
      "ater": 989,
      "ĠIn": 990,
      "chool": 991,
      "ished": 992,
      "Ġtake": 993,
      "ost": 994,
      "ised": 995,
      "ents": 996,
      "ryff": 997,
      "ryffind": 998,
      "ank": 999,
      "Ġwr": 1000,
      "Ġlight": 1001,
      "Ġgi": 1002,
      "Ġanother": 1003,
      "hes": 1004,
      "Ġwent": 1005,
      "Ġsecond": 1006,
      "ern": 1007,
      "iff": 1008,
      "ĠGryffind": 1009,
      "ridge": 1010,
      "Ġhands": 1011,
      "Ġword": 1012,
      "Ġnight": 1013,
      "Ġnext": 1014,
      "Ġcur": 1015,
      "Ġinside": 1016,
      "we": 1017,
      "Ġkeep": 1018,
      "ĠTh": 1019,
      "oot": 1020,
      "ove": 1021,
      "arly": 1022,
      "Ġside": 1023,
      "Ġwhile": 1024,
      "Ġfloor": 1025,
      "Ġschool": 1026,
      "iously": 1027,
      "cle": 1028,
      "iet": 1029,
      "Ġboy": 1030,
      "Ġlarge": 1031,
      "Ġem": 1032,
      "Ġsound": 1033,
      "Ġnew": 1034,
      "ee": 1035,
      "tered": 1036,
      "Ġra": 1037,
      "body": 1038,
      "Ġfound": 1039,
      "Ġthree": 1040,
      "Ġupon": 1041,
      "ully": 1042,
      "Ġcall": 1043,
      "Ġwhis": 1044,
      "Ġlau": 1045,
      "Ġwindow": 1046,
      "ized": 1047,
      "mbridge": 1048,
      "sh": 1049,
      "ĠBl": 1050,
      "Yes": 1051,
      "get": 1052,
      "Ġblack": 1053,
      "az": 1054,
      "app": 1055,
      "Ġloud": 1056,
      "acher": 1057,
      "Ġel": 1058,
      "Ġsit": 1059,
      "Ġset": 1060,
      "Ġhair": 1061,
      "Ġret": 1062,
      "ĠUmbridge": 1063,
      "Ġper": 1064,
      "ement": 1065,
      "ne": 1066,
      "Ġcourse": 1067,
      "Ġgave": 1068,
      "istry": 1069,
      "ary": 1070,
      "Ġseen": 1071,
      "ip": 1072,
      "ĠJ": 1073,
      "ĠDeath": 1074,
      "bl": 1075,
      "ix": 1076,
      "Ġnothing": 1077,
      "Ġground": 1078,
      "ild": 1079,
      "Ġhear": 1080,
      "Ġstood": 1081,
      "ty": 1082,
      "Ġhelp": 1083,
      "ail": 1084,
      "ĠSt": 1085,
      "ĠMinistry": 1086,
      "ĠGryffindor": 1087,
      "udden": 1088,
      "hy": 1089,
      "Ġfin": 1090,
      "Ġjo": 1091,
      "aw": 1092,
      "ating": 1093,
      "Ġreal": 1094,
      "Ġonto": 1095,
      "Ġwhy": 1096,
      "igh": 1097,
      "iss": 1098,
      "Ġair": 1099,
      "Ġhalf": 1100,
      "airs": 1101,
      "Ġpulled": 1102,
      "Ġsk": 1103,
      "Ġsudden": 1104,
      "ightly": 1105,
      "Ġbook": 1106,
      "Ġwall": 1107,
      "ĠDo": 1108,
      "ĠUn": 1109,
      "Yeah": 1110,
      "ness": 1111,
      "Ġlif": 1112,
      "ower": 1113,
      "av": 1114,
      "Ġshout": 1115,
      "oody": 1116,
      "Ġwanted": 1117,
      "Ġcast": 1118,
      "Ġmat": 1119,
      "Ġour": 1120,
      "ached": 1121,
      "Ġacross": 1122,
      "Ġsat": 1123,
      "Ġbeg": 1124,
      "bby": 1125,
      "ans": 1126,
      "Ġfire": 1127,
      "Ġquick": 1128,
      "Ġfell": 1129,
      "ĠHis": 1130,
      "Ġsqu": 1131,
      "Ġwait": 1132,
      "Ġbeing": 1133,
      "Ġstud": 1134,
      "ways": 1135,
      "Ġplace": 1136,
      "Ġhouse": 1137,
      "Ġwasn": 1138,
      "ump": 1139,
      "unt": 1140,
      "ible": 1141,
      "Ġeach": 1142,
      "ng": 1143,
      "Ġfoll": 1144,
      "ently": 1145,
      "Ġmost": 1146,
      "ings": 1147,
      "ars": 1148,
      "Ġwithout": 1149,
      "Ġboth": 1150,
      "udge": 1151,
      "Ġcor": 1152,
      "Ġdone": 1153,
      "ĠMad": 1154,
      "Ġdoes": 1155,
      "Ġquiet": 1156,
      "arted": 1157,
      "ĠDark": 1158,
      "Ġhappened": 1159,
      "Ġyears": 1160,
      "Ġalong": 1161,
      "Ġquite": 1162,
      "Ġsmall": 1163,
      "Ġclass": 1164,
      "Ġmind": 1165,
      "ening": 1166,
      "ister": 1167,
      "os": 1168,
      "Ġcouldn": 1169,
      "Ġang": 1170,
      "That": 1171,
      "fully": 1172,
      "ru": 1173,
      "Ġagainst": 1174,
      "Ġbetter": 1175,
      "outh": 1176,
      "riend": 1177,
      "Ġcare": 1178,
      "Ġdoing": 1179,
      "cted": 1180,
      "ib": 1181,
      "Ġmagic": 1182,
      "ten": 1183,
      "ins": 1184,
      "owing": 1185,
      "ernon": 1186,
      "aster": 1187,
      "ĠPer": 1188,
      "Ġunt": 1189,
      "ric": 1190,
      "Ġple": 1191,
      "iling": 1192,
      "pered": 1193,
      "ey": 1194,
      "lu": 1195,
      "ying": 1196,
      "ĠVernon": 1197,
      "Ġbreat": 1198,
      "Ġelse": 1199,
      "Ġenough": 1200,
      "li": 1201,
      "ĠThen": 1202,
      "ĠMugg": 1203,
      "bes": 1204,
      "Ġkill": 1205,
      "Ġste": 1206,
      "Th": 1207,
      "ĠMagic": 1208,
      "ĠMoody": 1209,
      "Ġhold": 1210,
      "Ġeye": 1211,
      "ined": 1212,
      "Ġfam": 1213,
      "Ġmouth": 1214,
      "ready": 1215,
      "Ġexpe": 1216,
      "pr": 1217,
      "eh": 1218,
      "Ġmut": 1219,
      "tain": 1220,
      "urs": 1221,
      "amp": 1222,
      "cl": 1223,
      "aught": 1224,
      "Ġmin": 1225,
      "und": 1226,
      "ret": 1227,
      "Ġfore": 1228,
      "Ġless": 1229,
      "Ġbo": 1230,
      "Ġres": 1231,
      "Ġalready": 1232,
      "lyther": 1233,
      "Ġyell": 1234,
      "awn": 1235,
      "ia": 1236,
      "So": 1237,
      "Ġwalked": 1238,
      "Ġfriend": 1239,
      "Ġrobes": 1240,
      "arn": 1241,
      "Ġstaring": 1242,
      "ER": 1243,
      "reak": 1244,
      "Ġremem": 1245,
      "Ġpart": 1246,
      "Who": 1247,
      "ince": 1248,
      "Ġbelie": 1249,
      "Ġread": 1250,
      "ĠPet": 1251,
      "ĠUncle": 1252,
      "Ġforward": 1253,
      "iddle": 1254,
      "eared": 1255,
      "Ġdiff": 1256,
      "ĠAs": 1257,
      "ĠFudge": 1258,
      "form": 1259,
      "Ġgold": 1260,
      "Ġpast": 1261,
      "ĠSlyther": 1262,
      "anger": 1263,
      "Ġtre": 1264,
      "pping": 1265,
      "Ġrest": 1266,
      "Ġrather": 1267,
      "ably": 1268,
      "ween": 1269,
      "Ġtop": 1270,
      "Ġgone": 1271,
      "Ġwon": 1272,
      "ense": 1273,
      "Ġwhispered": 1274,
      "Ġthose": 1275,
      "Ġinst": 1276,
      "Ġreturn": 1277,
      "Ġthese": 1278,
      "Ġob": 1279,
      "ained": 1280,
      "Ġbetween": 1281,
      "Ġsna": 1282,
      "Ġsuddenly": 1283,
      "ged": 1284,
      "Ġscar": 1285,
      "Ġstanding": 1286,
      "udley": 1287,
      "ĠAr": 1288,
      "Ġbegan": 1289,
      "Ġuntil": 1290,
      "most": 1291,
      "ens": 1292,
      "dded": 1293,
      "Ġcar": 1294,
      "Ġgive": 1295,
      "Ġfull": 1296,
      "Ġopened": 1297,
      "ange": 1298,
      "Ġrec": 1299,
      "Ġmany": 1300,
      "wl": 1301,
      "Ġyet": 1302,
      "Ġtried": 1303,
      "Ġbro": 1304,
      "Ġlist": 1305,
      "Ġslightly": 1306,
      "Ġsitting": 1307,
      "Ġcold": 1308,
      "ither": 1309,
      "Ġglass": 1310,
      "idditch": 1311,
      "Ġsto": 1312,
      "Ġquickly": 1313,
      "head": 1314,
      "Ġwond": 1315,
      "Ġcou": 1316,
      "oke": 1317,
      "Ġdro": 1318,
      "Ġthings": 1319,
      "ĠDudley": 1320,
      "ches": 1321,
      "Ġhor": 1322,
      "Ġsame": 1323,
      "Ġtalking": 1324,
      "Ġdist": 1325,
      "Ġraised": 1326,
      "Ġminut": 1327,
      "ghorn": 1328,
      "Ġstart": 1329,
      "ĠGr": 1330,
      "Ġoffice": 1331,
      "Ġclose": 1332,
      "ph": 1333,
      "ĠSlu": 1334,
      "Ġcorrid": 1335,
      "ult": 1336,
      "Ġstarted": 1337,
      "irl": 1338,
      "ĠQuidditch": 1339,
      "Ġcastle": 1340,
      "Ġgre": 1341,
      "Ġreached": 1342,
      "ames": 1343,
      "Ġbad": 1344,
      "ĠClo": 1345,
      "day": 1346,
      "ention": 1347,
      "ĠHall": 1348,
      "ĠSlughorn": 1349,
      "Ġdeep": 1350,
      "osed": 1351,
      "Ġwouldn": 1352,
      "Ġcomm": 1353,
      "ĠAn": 1354,
      "cket": 1355,
      "ĠLord": 1356,
      "How": 1357,
      "you": 1358,
      "Ġad": 1359,
      "Ġunderst": 1360,
      "ĠBlack": 1361,
      "gether": 1362,
      "Ġable": 1363,
      "ĠCloak": 1364,
      "igg": 1365,
      "Ġslow": 1366,
      "Ġpain": 1367,
      "aken": 1368,
      "Ġexp": 1369,
      "Ġdead": 1370,
      "tering": 1371,
      "ĠDobby": 1372,
      "Ġalways": 1373,
      "Ġshouted": 1374,
      "Ġalmost": 1375,
      "ĠPercy": 1376,
      "Ġco": 1377,
      "Ġstra": 1378,
      "lves": 1379,
      "Ġhigh": 1380,
      "Ġname": 1381,
      "Ġide": 1382,
      "aters": 1383,
      "Ġanyone": 1384,
      "Ġcoming": 1385,
      "iv": 1386,
      "Ġtogether": 1387,
      "Ġlater": 1388,
      "erv": 1389,
      "Ġfather": 1390,
      "med": 1391,
      "rac": 1392,
      "Ġfing": 1393,
      "Ġcalled": 1394,
      "ured": 1395,
      "ately": 1396,
      "der": 1397,
      "ual": 1398,
      "Ġind": 1399,
      "Ġuse": 1400,
      "Ġmem": 1401,
      "vis": 1402,
      "Ġbes": 1403,
      "Ġgirl": 1404,
      "ĠSe": 1405,
      "Ġwork": 1406,
      "Ġdrag": 1407,
      "sw": 1408,
      "Ġstared": 1409,
      "Ġhour": 1410,
      "Ġfour": 1411,
      "Ġscream": 1412,
      "ere": 1413,
      "Ġposs": 1414,
      "Ġsle": 1415,
      "Ġbroom": 1416,
      "Ġpers": 1417,
      "They": 1418,
      "Ġdec": 1419,
      "Ġhowever": 1420,
      "Ġfar": 1421,
      "Ġfoot": 1422,
      "ĠWhat": 1423,
      "Ġcontin": 1424,
      "ron": 1425,
      "Ġcrow": 1426,
      "Ġfeeling": 1427,
      "ci": 1428,
      "EN": 1429,
      "cus": 1430,
      "Ġmar": 1431,
      "aced": 1432,
      "Ġsight": 1433,
      "ought": 1434,
      "Ġowl": 1435,
      "Ġgu": 1436,
      "unk": 1437,
      "Ġpar": 1438,
      "Ġyeh": 1439,
      "Ġcrowd": 1440,
      "Ġquietly": 1441,
      "ited": 1442,
      "raw": 1443,
      "Ġwatching": 1444,
      "Ġwhole": 1445,
      "rabb": 1446,
      "Ġstudents": 1447,
      "Ġsign": 1448,
      "Ġvis": 1449,
      "Ġleg": 1450,
      "ery": 1451,
      "Ġlot": 1452,
      "Ġbeside": 1453,
      "ĠY": 1454,
      "ith": 1455,
      "Ġhall": 1456,
      "ĠIf": 1457,
      "eps": 1458,
      "aps": 1459,
      "orry": 1460,
      "Ġdet": 1461,
      "ird": 1462,
      "There": 1463,
      "Ġempt": 1464,
      "ued": 1465,
      "Ġmother": 1466,
      "Not": 1467,
      "umm": 1468,
      "ĠEaters": 1469,
      "ures": 1470,
      "ict": 1471,
      "ually": 1472,
      "Ġfur": 1473,
      "Ġoutside": 1474,
      "Ġstraight": 1475,
      "Ġaw": 1476,
      "una": 1477,
      "Ġletter": 1478,
      "rest": 1479,
      "ĠWhen": 1480,
      "iled": 1481,
      "Ġheart": 1482,
      "Ġlow": 1483,
      "Ġask": 1484,
      "Ġred": 1485,
      "Ġeverything": 1486,
      "Ġstop": 1487,
      "Ġcorn": 1488,
      "Ġwee": 1489,
      "Ġmove": 1490,
      "Ġeveryone": 1491,
      "Ġcaught": 1492,
      "imes": 1493,
      "Ġansw": 1494,
      "Ġcat": 1495,
      "ene": 1496,
      "icked": 1497,
      "Ġbest": 1498,
      "Ġdement": 1499,
      "Ġisn": 1500,
      "Ġkept": 1501,
      "Ġpassed": 1502,
      "Ġlife": 1503,
      "ĠSlytherin": 1504,
      "rouch": 1505,
      "Ġidea": 1506,
      "ply": 1507,
      "Ġsir": 1508,
      "Ġsupposed": 1509,
      "Ġbelieve": 1510,
      "Ġslowly": 1511,
      "Ġwhether": 1512,
      "Ġwords": 1513,
      "Ġstopped": 1514,
      "Ġdef": 1515,
      "ĠSc": 1516,
      "Ġbur": 1517,
      "Ġsaying": 1518,
      "Ġmuttered": 1519,
      "Ġri": 1520,
      "Ġact": 1521,
      "Ġhope": 1522,
      "Ġhit": 1523,
      "Ġpot": 1524,
      "acked": 1525,
      "where": 1526,
      "Ġgetting": 1527,
      "Ġ(": 1528,
      "ĠLuna": 1529,
      "Ġbreath": 1530,
      "ĠMuggle": 1531,
      "cc": 1532,
      "so": 1533,
      "Ġhaven": 1534,
      "ĠAl": 1535,
      "Ġsince": 1536,
      "Ġhome": 1537,
      "rif": 1538,
      "cing": 1539,
      "Ġshort": 1540,
      "ize": 1541,
      "Ġsomeone": 1542,
      "Ġwizards": 1543,
      "light": 1544,
      "rum": 1545,
      "Ġtaken": 1546,
      "fort": 1547,
      "ject": 1548,
      "edric": 1549,
      "Ġlaugh": 1550,
      "Ġbreak": 1551,
      "Ġstay": 1552,
      "aged": 1553,
      "ĠCrouch": 1554,
      "Ġplay": 1555,
      "Ġsort": 1556,
      "Ġmoved": 1557,
      "ĠMadam": 1558,
      "Don": 1559,
      "rible": 1560,
      "Ġholding": 1561,
      "reacher": 1562,
      "Ġfall": 1563,
      "ging": 1564,
      "Ġstone": 1565,
      "ĠAunt": 1566,
      "ĠFl": 1567,
      "Ġlea": 1568,
      "Ġext": 1569,
      "orning": 1570,
      "Ġyes": 1571,
      "Ġleave": 1572,
      "ursley": 1573,
      "phe": 1574,
      "rel": 1575,
      "ati": 1576,
      "ĠDursley": 1577,
      "Ġgreen": 1578,
      "Ġunderstand": 1579,
      "Ġdi": 1580,
      "Ġnose": 1581,
      "Ġcomp": 1582,
      "Ġdisapp": 1583,
      "Ġcorridor": 1584,
      "Ġempty": 1585,
      "now": 1586,
      "Ġquest": 1587,
      "Ġsilence": 1588,
      "ier": 1589,
      "ĠHow": 1590,
      "cept": 1591,
      "ility": 1592,
      "Ġalone": 1593,
      "Ġloudly": 1594,
      "If": 1595,
      "man": 1596,
      "Ġtaking": 1597,
      "Ġbus": 1598,
      "Ġhadn": 1599,
      "Ġwearing": 1600,
      "Ġmaking": 1601,
      "Ġexam": 1602,
      "Ġappeared": 1603,
      "Ġtalk": 1604,
      "Ġminutes": 1605,
      "ĠAll": 1606,
      "ĠCedric": 1607,
      "ided": 1608,
      "Ġteacher": 1609,
      "HA": 1610,
      "iding": 1611,
      "Ġpoint": 1612,
      "Ġshoulder": 1613,
      "ows": 1614,
      "Ġpointed": 1615,
      "tend": 1616,
      "haps": 1617,
      "Ġsurpr": 1618,
      "Ġhat": 1619,
      "ushed": 1620,
      "rave": 1621,
      "Ġarri": 1622,
      "Ġbag": 1623,
      "Ġspell": 1624,
      "ertain": 1625,
      "Ġmorning": 1626,
      "anks": 1627,
      "She": 1628,
      "ale": 1629,
      "Ġrel": 1630,
      "unia": 1631,
      "Ġfollowed": 1632,
      "ken": 1633,
      "Ġarms": 1634,
      "iny": 1635,
      "Ġdire": 1636,
      "ously": 1637,
      "Ġwatched": 1638,
      "Ġsilver": 1639,
      "sp": 1640,
      "Ġstuff": 1641,
      "ĠFil": 1642,
      "Ġremember": 1643,
      "Why": 1644,
      "fect": 1645,
      "read": 1646,
      "ĠAt": 1647,
      "ĠFor": 1648,
      "Ġmeet": 1649,
      "Ġpointing": 1650,
      "ĠPetunia": 1651,
      "anced": 1652,
      "iced": 1653,
      "Ġmatter": 1654,
      "Ġbu": 1655,
      "ĠRiddle": 1656,
      "kay": 1657,
      "ror": 1658,
      "Ġbright": 1659,
      "Ġce": 1660,
      "Ġpower": 1661,
      "ĠBill": 1662,
      "ression": 1663,
      "Ġfle": 1664,
      "Ġsever": 1665,
      "Ġothers": 1666,
      "Ġacc": 1667,
      "Ġfly": 1668,
      "Ġchair": 1669,
      "Ġteam": 1670,
      "actly": 1671,
      "Ġdesk": 1672,
      "HE": 1673,
      "bo": 1674,
      "Ġmon": 1675,
      "Ġinter": 1676,
      "Ġkind": 1677,
      "Ġcomple": 1678,
      "Ġcorner": 1679,
      "Ġser": 1680,
      "Ġexc": 1681,
      "Ġspot": 1682,
      "Ġwater": 1683,
      "Ġclosed": 1684,
      "Ġcommon": 1685,
      "Ġwhite": 1686,
      "Ġthinking": 1687,
      "Ġseveral": 1688,
      "lled": 1689,
      "Ġhurried": 1690,
      "ĠBe": 1691,
      "Ġentr": 1692,
      "uring": 1693,
      "Ġfast": 1694,
      "antly": 1695,
      "ĠOn": 1696,
      "ĠThis": 1697,
      "Ġref": 1698,
      "selves": 1699,
      "oyle": 1700,
      "Ġsuch": 1701,
      "ĠFilch": 1702,
      "ired": 1703,
      "ashed": 1704,
      "Ġhaving": 1705,
      "imb": 1706,
      "Ġkit": 1707,
      "ĠMinister": 1708,
      "Ġmis": 1709,
      "Ġru": 1710,
      "sit": 1711,
      "aces": 1712,
      "Ġbody": 1713,
      "Ġdoesn": 1714,
      "Ġperson": 1715,
      "Ġmet": 1716,
      "Ġshaking": 1717,
      "lock": 1718,
      "Ġseat": 1719,
      "Ġfamily": 1720,
      "ased": 1721,
      "orc": 1722,
      "Ġlay": 1723,
      "vers": 1724,
      "TER": 1725,
      "Ġsent": 1726,
      "ĠKreacher": 1727,
      "Ġspeak": 1728,
      "Ġattem": 1729,
      "Ġgiven": 1730,
      "like": 1731,
      "the": 1732,
      "Ġten": 1733,
      "Ġthick": 1734,
      "Ġins": 1735,
      "rait": 1736,
      "unning": 1737,
      "ibility": 1738,
      "Ġyelled": 1739,
      "Ġ?\"": 1740,
      "Ġdanger": 1741,
      "Ġusual": 1742,
      "nts": 1743,
      "Ġsorry": 1744,
      "rey": 1745,
      "Ġheav": 1746,
      "Ġgaz": 1747,
      "Ġnear": 1748,
      "Ġused": 1749,
      "Ġdirect": 1750,
      "vent": 1751,
      "chment": 1752,
      "Ġconf": 1753,
      "aven": 1754,
      "Ġheld": 1755,
      "Ġtrou": 1756,
      "Ġmist": 1757,
      "ored": 1758,
      "ĠCho": 1759,
      "Ġpocket": 1760,
      "Ġblood": 1761,
      "Ġbooks": 1762,
      "Ġparchment": 1763,
      "chen": 1764,
      "esc": 1765,
      "idden": 1766,
      "Ġfight": 1767,
      "Ġmur": 1768,
      "Ġneck": 1769,
      "Ġsub": 1770,
      "Ġwrong": 1771,
      "OU": 1772,
      "ash": 1773,
      "rying": 1774,
      "auld": 1775,
      "Ġentrance": 1776,
      "ipped": 1777,
      "ps": 1778,
      "Ġmay": 1779,
      "ĠFle": 1780,
      "Ġvan": 1781,
      "Ġunc": 1782,
      "Ġdementors": 1783,
      "Ġkitchen": 1784,
      "but": 1785,
      "ead": 1786,
      "hart": 1787,
      "Ġport": 1788,
      "ĠMy": 1789,
      "Ġexpl": 1790,
      "Ġswe": 1791,
      "Ġprot": 1792,
      "no": 1793,
      "ze": 1794,
      "Ġed": 1795,
      "ork": 1796,
      "icul": 1797,
      "Ġwatch": 1798,
      "awney": 1799,
      "relawney": 1800,
      "Ġpat": 1801,
      "ĠSn": 1802,
      "ĠBag": 1803,
      "ĠLock": 1804,
      "Ġburst": 1805,
      "Ġadded": 1806,
      "Ġtelling": 1807,
      "Ġsim": 1808,
      "ĠTrelawney": 1809,
      "Ġlost": 1810,
      "Ġcontinued": 1811,
      "Ġfact": 1812,
      "Ġodd": 1813,
      "ĠBell": 1814,
      "Ġmoving": 1815,
      "terest": 1816,
      "Ġfingers": 1817,
      "sing": 1818,
      "acing": 1819,
      "Ġsaf": 1820,
      "Ġshut": 1821,
      "ĠLockhart": 1822,
      "abb": 1823,
      "case": 1824,
      "tail": 1825,
      "Ġeither": 1826,
      "ooking": 1827,
      "ĠHead": 1828,
      "Know": 1829,
      "Ġrep": 1830,
      "onks": 1831,
      "Ġfree": 1832,
      "Ġdou": 1833,
      "Ġstre": 1834,
      "aming": 1835,
      "Ġsmile": 1836,
      "undred": 1837,
      "Ġanswer": 1838,
      "Ġcomplete": 1839,
      "ining": 1840,
      "Ġnumb": 1841,
      "Ġforg": 1842,
      "Ġdied": 1843,
      "ĠNo": 1844,
      "overed": 1845,
      "Ġexpect": 1846,
      "Ġ\"'": 1847,
      "Ġpare": 1848,
      "ĠKrum": 1849,
      "ye": 1850,
      "Do": 1851,
      "Ġran": 1852,
      "Ġexactly": 1853,
      "Ġdiffere": 1854,
      "raco": 1855,
      "Ġtear": 1856,
      "Ġinterest": 1857,
      "anded": 1858,
      "Ġdear": 1859,
      "IN": 1860,
      "br": 1861,
      "tom": 1862,
      "Ġdream": 1863,
      "Ġinc": 1864,
      "rive": 1865,
      "Ġthemselves": 1866,
      "Ġfive": 1867,
      "ĠGoyle": 1868,
      "Ġsoon": 1869,
      "oun": 1870,
      "ĠOr": 1871,
      "Ġdays": 1872,
      "Ġtiny": 1873,
      "int": 1874,
      "Ġbene": 1875,
      "ĠGreat": 1876,
      "rabbe": 1877,
      "ĠFleur": 1878,
      "Ġhundred": 1879,
      "Ġyoung": 1880,
      "ĠFire": 1881,
      "ĠTonks": 1882,
      "Ġreturned": 1883,
      "Ġportrait": 1884,
      "ping": 1885,
      "Ġstair": 1886,
      "ically": 1887,
      "Ġshook": 1888,
      "Ġdeath": 1889,
      "Ġwaiting": 1890,
      "rux": 1891,
      "orcrux": 1892,
      "ĠHorcrux": 1893,
      "ĠSo": 1894,
      "Ġnearly": 1895,
      "Ġknock": 1896,
      "Ġspoke": 1897,
      "Ġplan": 1898,
      "anged": 1899,
      "Ġsnake": 1900,
      "Ġsleep": 1901,
      "ĠBagman": 1902,
      "cent": 1903,
      "let": 1904,
      "ĠWizard": 1905,
      "Ġabove": 1906,
      "Ġspr": 1907,
      "ield": 1908,
      "Ġtrain": 1909,
      "Ġpres": 1910,
      "Ġdropped": 1911,
      "Ġbell": 1912,
      "Ġwitch": 1913,
      "ĠCrabbe": 1914,
      "ntly": 1915,
      "Ġparents": 1916,
      "aff": 1917,
      "Ġtou": 1918,
      "inging": 1919,
      "ively": 1920,
      "This": 1921,
      "Ġshar": 1922,
      "Ġnoise": 1923,
      "Ġturning": 1924,
      "ĠDraco": 1925,
      "Ġrun": 1926,
      "Ġago": 1927,
      "Ġalso": 1928,
      "ĠCharm": 1929,
      "ĠDursleys": 1930,
      "stairs": 1931,
      "umped": 1932,
      "Ġnoticed": 1933,
      "Ġshall": 1934,
      "Ġleast": 1935,
      "inning": 1936,
      "Ġdarkness": 1937,
      "eak": 1938,
      "Ġtimes": 1939,
      "Ġstairs": 1940,
      "ĠPr": 1941,
      "Ġtri": 1942,
      "Ġwide": 1943,
      "Ġgas": 1944,
      "Ġhurt": 1945,
      "ax": 1946,
      "Ġpur": 1947,
      "str": 1948,
      "Ġgobl": 1949,
      "Ġbeneath": 1950,
      "Ġlying": 1951,
      "Ġexcept": 1952,
      "upid": 1953,
      "Ġentered": 1954,
      "Ġforest": 1955,
      "wo": 1956,
      "ination": 1957,
      "Ġsteps": 1958,
      "Ġclut": 1959,
      "Ġgolden": 1960,
      "ces": 1961,
      "mas": 1962,
      "Ġround": 1963,
      "Ġ\"âĢĶ": 1964,
      "Ġfa": 1965,
      "ets": 1966,
      "uth": 1967,
      "ckon": 1968,
      "Pro": 1969,
      "Ġsus": 1970,
      "Ġcup": 1971,
      "roll": 1972,
      "Ġreg": 1973,
      "ĠEvery": 1974,
      "Ġdoors": 1975,
      "Ġappro": 1976,
      "Ġfinished": 1977,
      "My": 1978,
      "ising": 1979,
      "Ġcarry": 1980,
      "ason": 1981,
      "Ġears": 1982,
      "apt": 1983,
      "Ġfriends": 1984,
      "visibility": 1985,
      "Ġleaving": 1986,
      "ald": 1987,
      "wig": 1988,
      "Ġwom": 1989,
      "ount": 1990,
      "Ġburn": 1991,
      "Ġev": 1992,
      "Ġsoft": 1993,
      "artment": 1994,
      "ĠNow": 1995,
      "arely": 1996,
      "Ġchest": 1997,
      "Ġcheck": 1998,
      "rist": 1999,
      "Ġnerv": 2000,
      "ster": 2001,
      "Ġneare": 2002,
      "Ġwhose": 2003,
      "abin": 2004,
      "ĠInvisibility": 2005,
      "Ġceiling": 2006,
      "ren": 2007,
      "Ġcase": 2008,
      "rod": 2009,
      "amed": 2010,
      "Ġshock": 2011,
      "Ġplease": 2012,
      "Er": 2013,
      "vo": 2014,
      "Ġsumm": 2015,
      "Ġear": 2016,
      "enty": 2017,
      "Ġwrit": 2018,
      "Ġtrouble": 2019,
      "ristmas": 2020,
      "Ġton": 2021,
      "edwig": 2022,
      "ressed": 2023,
      "Ġgrounds": 2024,
      "Ġrealized": 2025,
      "Ġstaircase": 2026,
      "Ġopp": 2027,
      "Ġdraw": 2028,
      "Ġthrew": 2029,
      "aned": 2030,
      "Ġstupid": 2031,
      "Ġrepe": 2032,
      "Ġspl": 2033,
      "ĠDean": 2034,
      "Ġquestion": 2035,
      "Come": 2036,
      "Ġcoll": 2037,
      "Ġcross": 2038,
      "Ġclear": 2039,
      "Ġflew": 2040,
      "Ġsix": 2041,
      "Ġmanaged": 2042,
      "Ġpract": 2043,
      "Ġarrived": 2044,
      "ĠThat": 2045,
      "rily": 2046,
      "ĠChristmas": 2047,
      "Ġlegs": 2048,
      "stick": 2049,
      "Ġgiant": 2050,
      "Ġap": 2051,
      "Ġmid": 2052,
      "ages": 2053,
      "akes": 2054,
      "atri": 2055,
      "Ġchance": 2056,
      "CHA": 2057,
      "off": 2058,
      "Ġesc": 2059,
      "Ġrunning": 2060,
      "Ġmagical": 2061,
      "Ġpotion": 2062,
      "rified": 2063,
      "board": 2064,
      "atrix": 2065,
      "Now": 2066,
      "PTER": 2067,
      "eed": 2068,
      "Ġmad": 2069,
      "Ġeas": 2070,
      "Ġlooks": 2071,
      "Ġcloak": 2072,
      "CHAPTER": 2073,
      "uc": 2074,
      "Ġtent": 2075,
      "ĠHedwig": 2076,
      "Ġint": 2077,
      "ief": 2078,
      "aper": 2079,
      "Ġenorm": 2080,
      "ormtail": 2081,
      "Ġbecame": 2082,
      "Ġwalls": 2083,
      "Good": 2084,
      "bus": 2085,
      "ug": 2086,
      "rill": 2087,
      "ĠRe": 2088,
      "illed": 2089,
      "Ġglanced": 2090,
      "Be": 2091,
      "ishing": 2092,
      "ask": 2093,
      "alm": 2094,
      "Ġclimb": 2095,
      "Ġimport": 2096,
      "Ġwindows": 2097,
      "Ġglasses": 2098,
      "Ġvanished": 2099,
      "ger": 2100,
      "work": 2101,
      "Ġcreat": 2102,
      "Ġsays": 2103,
      "Ġlonger": 2104,
      "Ġevening": 2105,
      "Ġexpression": 2106,
      "ĠHer": 2107,
      "Ġeff": 2108,
      "used": 2109,
      "Ġnobody": 2110,
      "Ġworld": 2111,
      "Ġattack": 2112,
      "ĠBellatrix": 2113,
      "All": 2114,
      "Ġwarn": 2115,
      "ingly": 2116,
      "Ġcertain": 2117,
      "ush": 2118,
      "olt": 2119,
      "Ġpress": 2120,
      "Ġwoman": 2121,
      "Ġer": 2122,
      "Ġpict": 2123,
      "Ġseized": 2124,
      "Ġforgot": 2125,
      "ser": 2126,
      "Ġson": 2127,
      "Ġcent": 2128,
      "Ġwithin": 2129,
      "Ġtrunk": 2130,
      "Ġemer": 2131,
      "Ġmatch": 2132,
      "Professor": 2133,
      "Ġocc": 2134,
      "ident": 2135,
      "iew": 2136,
      "Ġwalking": 2137,
      "Ġperhaps": 2138,
      "OR": 2139,
      "Ġpie": 2140,
      "Ġinform": 2141,
      "ĠWith": 2142,
      "ĠWormtail": 2143,
      "Ġmeant": 2144,
      "Ġnumber": 2145,
      "Ġenormous": 2146,
      "looking": 2147,
      "inted": 2148,
      "Ġhop": 2149,
      "Ġready": 2150,
      "Ġbrother": 2151,
      "bably": 2152,
      "kes": 2153,
      "lin": 2154,
      "rup": 2155,
      "Ġfif": 2156,
      "ĠHouse": 2157,
      "Ġthr": 2158,
      "Ġcho": 2159,
      "ogn": 2160,
      "Ġsword": 2161,
      "Ġbar": 2162,
      "Ġluck": 2163,
      "ĠWood": 2164,
      "ĠProphe": 2165,
      "Ġpulling": 2166,
      "Ġknown": 2167,
      "Ġlead": 2168,
      "ON": 2169,
      "Ġve": 2170,
      "Ġthin": 2171,
      "Ġherself": 2172,
      "ĠOne": 2173,
      "Ġfinally": 2174,
      "Ġsafe": 2175,
      "Where": 2176,
      "ĠCr": 2177,
      "Ġwood": 2178,
      "rely": 2179,
      "Ġelf": 2180,
      "amus": 2181,
      "pect": 2182,
      "inking": 2183,
      "Ġknows": 2184,
      "Ġhappy": 2185,
      "Ġangrily": 2186,
      "Ġign": 2187,
      "Ġass": 2188,
      "als": 2189,
      "ĠPat": 2190,
      "Ġshad": 2191,
      "aining": 2192,
      "Ġbelow": 2193,
      "Ġkilled": 2194,
      "Ġfig": 2195,
      "aning": 2196,
      "Ġwands": 2197,
      "ations": 2198,
      "ĠJames": 2199,
      "Ġangry": 2200,
      "Ġrememb": 2201,
      "Ġbroken": 2202,
      "Ġlistening": 2203,
      "Ġtonight": 2204,
      "kab": 2205,
      "not": 2206,
      "zkab": 2207,
      "Ġokay": 2208,
      "Ġhang": 2209,
      "ices": 2210,
      "ĠSh": 2211,
      "unny": 2212,
      "Ġjob": 2213,
      "Ġinstead": 2214,
      "ĠArts": 2215,
      "Ġrecogn": 2216,
      "zkaban": 2217,
      "nding": 2218,
      "Ġcir": 2219,
      "rought": 2220,
      "Ġsmiling": 2221,
      "ection": 2222,
      "Ġbroke": 2223,
      "Ġflying": 2224,
      "Ġsun": 2225,
      "Ġcut": 2226,
      "Ġthro": 2227,
      "Ġpale": 2228,
      "Ġinv": 2229,
      "Ġflat": 2230,
      "Ġclearly": 2231,
      "ĠSeamus": 2232,
      "Ġweek": 2233,
      "ĠAlbus": 2234,
      "Ġcompletely": 2235,
      "An": 2236,
      "oom": 2237,
      "ub": 2238,
      "rell": 2239,
      "Ġbat": 2240,
      "isk": 2241,
      "cho": 2242,
      "ĠPar": 2243,
      "ĠAg": 2244,
      "arently": 2245,
      "Ġheads": 2246,
      "ĠEater": 2247,
      "Ġtrue": 2248,
      "Did": 2249,
      "Ġegg": 2250,
      "aled": 2251,
      "ĠAzkaban": 2252,
      "inky": 2253,
      "Ġnodded": 2254,
      "icking": 2255,
      "Ġseconds": 2256,
      "claw": 2257,
      "Ġlesson": 2258,
      "Ġdragon": 2259,
      "avenclaw": 2260,
      "cause": 2261,
      "wh": 2262,
      "Ġanyway": 2263,
      "Ġheadm": 2264,
      "Ġsuppose": 2265,
      "Ġvisit": 2266,
      "Look": 2267,
      "rim": 2268,
      "tly": 2269,
      "ĠWell": 2270,
      "Ġbackward": 2271,
      "inner": 2272,
      "Ġtrees": 2273,
      "ĠProphet": 2274,
      "Ġz": 2275,
      "oul": 2276,
      "arrow": 2277,
      "ison": 2278,
      "Ġtor": 2279,
      "Ġmention": 2280,
      "Ġecho": 2281,
      "Ġreason": 2282,
      "Ġmemory": 2283,
      "ĠSnitch": 2284,
      "Ġrepeated": 2285,
      "Ex": 2286,
      "Ġball": 2287,
      "Ġmiss": 2288,
      "Ġled": 2289,
      "ĠRavenclaw": 2290,
      "Ġshow": 2291,
      "Ġmonth": 2292,
      "Ġill": 2293,
      "Ġought": 2294,
      "Ġbarely": 2295,
      "Ġthrow": 2296,
      "Ġstret": 2297,
      "ĠSever": 2298,
      "ains": 2299,
      "ĠMagical": 2300,
      "Ġwhom": 2301,
      "Ġreckon": 2302,
      "ĠEr": 2303,
      "Ġimag": 2304,
      "Ġdisc": 2305,
      "ider": 2306,
      "Ġforced": 2307,
      "Ġlearn": 2308,
      "Ġtears": 2309,
      "Dumbledore": 2310,
      "Ron": 2311,
      "ghed": 2312,
      "ike": 2313,
      "Ġahead": 2314,
      "Ġstory": 2315,
      "Ġshot": 2316,
      "unch": 2317,
      "Ġscr": 2318,
      "Ġstrange": 2319,
      "Ġdoub": 2320,
      "Ġmir": 2321,
      "Ġgle": 2322,
      "Ġrat": 2323,
      "Ġsky": 2324,
      "ĠMuggles": 2325,
      "Ġhorrible": 2326,
      "auldron": 2327,
      "Hermione": 2328,
      "iness": 2329,
      "Ġhidden": 2330,
      "orted": 2331,
      "orrow": 2332,
      "Ġpair": 2333,
      "Ġgiving": 2334,
      "Ġbox": 2335,
      "Ġdifferent": 2336,
      "St": 2337,
      "Ġbig": 2338,
      "Ġquill": 2339,
      "Ġhours": 2340,
      "Ġwing": 2341,
      "Ġbow": 2342,
      "Ġblank": 2343,
      "ĠEx": 2344,
      "Ġhappen": 2345,
      "Ġsnapped": 2346,
      "AR": 2347,
      "isted": 2348,
      "ition": 2349,
      "itted": 2350,
      "Ġcabin": 2351,
      "Ġdorm": 2352,
      "Ġmiddle": 2353,
      "Ġlake": 2354,
      "imm": 2355,
      "ooksh": 2356,
      "Ġcons": 2357,
      "Ġstepped": 2358,
      "Ġimportant": 2359,
      "ookshanks": 2360,
      "Ġir": 2361,
      "aroff": 2362,
      "ates": 2363,
      "Ġanx": 2364,
      "Ġfear": 2365,
      "ĠCup": 2366,
      "arkaroff": 2367,
      "lessly": 2368,
      "Ġsing": 2369,
      "atur": 2370,
      "ita": 2371,
      "Ġcop": 2372,
      "Ġthird": 2373,
      "ancing": 2374,
      "omf": 2375,
      "ĠNot": 2376,
      "Ġblue": 2377,
      "Ġtruth": 2378,
      "eeves": 2379,
      "Ġfre": 2380,
      "Ġeag": 2381,
      "aped": 2382,
      "Ġpoints": 2383,
      "ĠOrder": 2384,
      "ĠAgain": 2385,
      "by": 2386,
      "ial": 2387,
      "Ġlate": 2388,
      "Ġpushed": 2389,
      "ane": 2390,
      "Ġyourself": 2391,
      "uffle": 2392,
      "Ġstrugg": 2393,
      "Ġdangerous": 2394,
      "Ġdormit": 2395,
      "Ġhum": 2396,
      "Ġbrought": 2397,
      "vering": 2398,
      "ĠPomf": 2399,
      "Ġdeser": 2400,
      "Ġpossible": 2401,
      "Ġexcited": 2402,
      "ĠPomfrey": 2403,
      "more": 2404,
      "Ġfright": 2405,
      "Ġstom": 2406,
      "Ġgray": 2407,
      "Ġsilent": 2408,
      "ixed": 2409,
      "Ġadm": 2410,
      "Ġstreet": 2411,
      "Ġcarrying": 2412,
      "Ġsummer": 2413,
      "ape": 2414,
      "Ġduring": 2415,
      "ĠMar": 2416,
      "Ġroared": 2417,
      "ular": 2418,
      "Ġtrans": 2419,
      "Ġpretend": 2420,
      "Ġprobably": 2421,
      "Ġdesper": 2422,
      "Ġhardly": 2423,
      "Ġsounded": 2424,
      "LE": 2425,
      "Let": 2426,
      "ipp": 2427,
      "rit": 2428,
      "Ġhast": 2429,
      "Ġgri": 2430,
      "Ġshrie": 2431,
      "Ġrose": 2432,
      "bbing": 2433,
      "Ġappear": 2434,
      "teen": 2435,
      "Ġobject": 2436,
      "ĠCrookshanks": 2437,
      "Ġsister": 2438,
      "nded": 2439,
      "Ġfaces": 2440,
      "Ġcalm": 2441,
      "Ġsugg": 2442,
      "Ġlaughed": 2443,
      "Ġwonder": 2444,
      "gy": 2445,
      "Ġadd": 2446,
      "Ġfine": 2447,
      "icult": 2448,
      "Ġjumped": 2449,
      "Ġchamp": 2450,
      "ĠDef": 2451,
      "Ġbottle": 2452,
      "Ġexpected": 2453,
      "Ġobv": 2454,
      "Ah": 2455,
      "sme": 2456,
      "ta": 2457,
      "Ġfro": 2458,
      "Ġcried": 2459,
      "Ġglo": 2460,
      "ĠRita": 2461,
      "Ġworse": 2462,
      "Ġedge": 2463,
      "Ġmaster": 2464,
      "Ġpicked": 2465,
      "rol": 2466,
      "ghter": 2467,
      "ters": 2468,
      "thur": 2469,
      "Ġnews": 2470,
      "Ġlaughter": 2471,
      "Ġpleased": 2472,
      "Ġcouple": 2473,
      "medi": 2474,
      "smeade": 2475,
      "Are": 2476,
      "Of": 2477,
      "puff": 2478,
      "Ġcovered": 2479,
      "pell": 2480,
      "geour": 2481,
      "ĠFr": 2482,
      "Ġaren": 2483,
      "Ġcloser": 2484,
      "ĠScrim": 2485,
      "ufflepuff": 2486,
      "TY": 2487,
      "uge": 2488,
      "Ġhung": 2489,
      "Ġpun": 2490,
      "Ġform": 2491,
      "ament": 2492,
      "ĠKarkaroff": 2493,
      "ĠHogsmeade": 2494,
      "Ġparticul": 2495,
      "Ġgirls": 2496,
      "Ġgoblin": 2497,
      "ĠScrimgeour": 2498,
      "bolt": 2499,
      "Ġtem": 2500,
      "Ġwild": 2501,
      "oring": 2502,
      "Ġdrew": 2503,
      "Ġyeah": 2504,
      "aching": 2505,
      "ĠApp": 2506,
      "Ġdifficult": 2507,
      "Ġheavy": 2508,
      "apped": 2509,
      "Ġtree": 2510,
      "Ġfunny": 2511,
      "ĠHufflepuff": 2512,
      "ital": 2513,
      "Ġnorm": 2514,
      "eter": 2515,
      "ĠPeeves": 2516,
      "ĠWhy": 2517,
      "ĠJust": 2518,
      "Ġstomach": 2519,
      "aid": 2520,
      "fast": 2521,
      "reme": 2522,
      "Ġbas": 2523,
      "Ġcol": 2524,
      "ushing": 2525,
      "ĠTr": 2526,
      "ĠSome": 2527,
      "Ġnote": 2528,
      "ife": 2529,
      "Ġposit": 2530,
      "Ġwants": 2531,
      "Ġindeed": 2532,
      "Ġsubject": 2533,
      "Ġsimply": 2534,
      "Ġheadmaster": 2535,
      "aut": 2536,
      "Ġtight": 2537,
      "ories": 2538,
      "Ġdinner": 2539,
      "Ġnor": 2540,
      "ĠDigg": 2541,
      "ĠAfter": 2542,
      "cked": 2543,
      "Ġimmedi": 2544,
      "host": 2545,
      "avor": 2546,
      "Ġapart": 2547,
      "ucius": 2548,
      "Ġthroat": 2549,
      "Ġph": 2550,
      "Ġgrou": 2551,
      "Ġfrown": 2552,
      "Ġmerely": 2553,
      "orth": 2554,
      "Ġord": 2555,
      "Ġtea": 2556,
      "Ġperfect": 2557,
      "ĠWizarding": 2558,
      "Is": 2559,
      "Ġfield": 2560,
      "oth": 2561,
      "ourn": 2562,
      "Ġgrow": 2563,
      "Ġlove": 2564,
      "Ġwondered": 2565,
      "Ġgasped": 2566,
      "iar": 2567,
      "Ġtra": 2568,
      "Ġghost": 2569,
      "amber": 2570,
      "geon": 2571,
      "Ġalive": 2572,
      "Ġslid": 2573,
      "Ġmyself": 2574,
      "blood": 2575,
      "Ġcarefully": 2576,
      "Ġscreamed": 2577,
      "Ġlaughing": 2578,
      "Just": 2579,
      "wick": 2580,
      "Ġavo": 2581,
      "Ġmess": 2582,
      "Ġnarrow": 2583,
      "oming": 2584,
      "eth": 2585,
      "riph": 2586,
      "aybe": 2587,
      "Ġleapt": 2588,
      "ept": 2589,
      "Ġwalk": 2590,
      "Ġactually": 2591,
      "riphook": 2592,
      "face": 2593,
      "Ġfer": 2594,
      "Ġdad": 2595,
      "Ġmark": 2596,
      "Ġaside": 2597,
      "Ġshr": 2598,
      "anding": 2599,
      "Ġchild": 2600,
      "avender": 2601,
      "Ġjoined": 2602,
      "Ġstarting": 2603,
      "Ġattemp": 2604,
      "aily": 2605,
      "bs": 2606,
      "eep": 2607,
      "Ġbath": 2608,
      "itwick": 2609,
      "imp": 2610,
      "ĠSke": 2611,
      "Ġworry": 2612,
      "ments": 2613,
      "Ġapparently": 2614,
      "Ġremained": 2615,
      "Ġneeded": 2616,
      "ungus": 2617,
      "Ġtremb": 2618,
      "Ġbroomstick": 2619,
      "Ġguard": 2620,
      "ning": 2621,
      "Ġbent": 2622,
      "Ġdem": 2623,
      "any": 2624,
      "Ġnice": 2625,
      "amb": 2626,
      "ĠWinky": 2627,
      "blet": 2628,
      "ĠLucius": 2629,
      "Ġsomebody": 2630,
      "Ġbecome": 2631,
      "Ġprom": 2632,
      "Ġhole": 2633,
      "ĠGranger": 2634,
      "ĠSec": 2635,
      "Ġcatch": 2636,
      "yond": 2637,
      "zen": 2638,
      "Ġtall": 2639,
      "Ġhuge": 2640,
      "ones": 2641,
      "Ġdare": 2642,
      "Ġann": 2643,
      "Ġshop": 2644,
      "Ġsmiled": 2645,
      "aused": 2646,
      "ĠPotions": 2647,
      "Ġknees": 2648,
      "Ġterrible": 2649,
      "Ġfamil": 2650,
      "Ġbreakfast": 2651,
      "ĠFlitwick": 2652,
      "Ġremembered": 2653,
      "Right": 2654,
      "Ġcre": 2655,
      "ote": 2656,
      "ays": 2657,
      "Ġdog": 2658,
      "Ġweren": 2659,
      "Ġabs": 2660,
      "Ġsomewhere": 2661,
      "Ġfirm": 2662,
      "Ġdrink": 2663,
      "undungus": 2664,
      "Ġextreme": 2665,
      "Ġdirection": 2666,
      "rode": 2667,
      "ĠAgainst": 2668,
      "col": 2669,
      "joy": 2670,
      "Ġtightly": 2671,
      "Ġnone": 2672,
      "Ġbeyond": 2673,
      "ĠLavender": 2674,
      "Ġview": 2675,
      "Ġworking": 2676,
      "Ġstrong": 2677,
      "Ġadv": 2678,
      "Ġsurprise": 2679,
      "Ġclimbed": 2680,
      "'\"": 2681,
      "Ġwish": 2682,
      "Ġsear": 2683,
      "Ġallowed": 2684,
      "Ġteachers": 2685,
      "Ġpicture": 2686,
      "ler": 2687,
      "Ġaf": 2688,
      "ashing": 2689,
      "ĠDaily": 2690,
      "ammed": 2691,
      "ĠGriphook": 2692,
      "eling": 2693,
      "Ġbottom": 2694,
      "abbers": 2695,
      "Ġoppos": 2696,
      "ĠDefense": 2697,
      "ĠSkeeter": 2698,
      "vati": 2699,
      "Ġsense": 2700,
      "arl": 2701,
      "Ġtoday": 2702,
      "Ġpink": 2703,
      "ute": 2704,
      "Ġforget": 2705,
      "Ġslipped": 2706,
      "itely": 2707,
      "Ġproper": 2708,
      "Ġcrack": 2709,
      "beak": 2710,
      "Ġboys": 2711,
      "Ġdecided": 2712,
      "Ġsurprised": 2713,
      "Ġsharply": 2714,
      "Ġclutching": 2715,
      "Ġinformation": 2716,
      "ĠPatron": 2717,
      "ĠDiggory": 2718,
      "Ġdest": 2719,
      "Ġstaff": 2720,
      "urse": 2721,
      "agg": 2722,
      "early": 2723,
      "Ġtwenty": 2724,
      "Ġteeth": 2725,
      "Ġsurround": 2726,
      "Ġclassroom": 2727,
      "Ġeager": 2728,
      "Sh": 2729,
      "Ġtail": 2730,
      "Ġpaper": 2731,
      "Ġitself": 2732,
      "ical": 2733,
      "ĠTHE": 2734,
      "Ġuna": 2735,
      "ĠDis": 2736,
      "ague": 2737,
      "raid": 2738,
      "Ġanymore": 2739,
      "Ġworried": 2740,
      "Ġhasn": 2741,
      "uckbeak": 2742,
      "Ġattention": 2743,
      "Ġsnow": 2744,
      "Ġforehead": 2745,
      "spital": 2746,
      "ha": 2747,
      "kin": 2748,
      "Ġhot": 2749,
      "Ġbang": 2750,
      "Ġdust": 2751,
      "Ġupstairs": 2752,
      "Ġsol": 2753,
      "Ġseeing": 2754,
      "Ġhappily": 2755,
      "Ġhospital": 2756,
      "Ġlessons": 2757,
      "Ġforgotten": 2758,
      "Eye": 2759,
      "ges": 2760,
      "zing": 2761,
      "inx": 2762,
      "Ġhol": 2763,
      "Ġfilled": 2764,
      "asure": 2765,
      "Ġdun": 2766,
      "Ġpan": 2767,
      "Ġweak": 2768,
      "steps": 2769,
      "Ġliving": 2770,
      "Ġpol": 2771,
      "Ġconvers": 2772,
      "Ġextra": 2773,
      "Ġgazing": 2774,
      "elf": 2775,
      "Ġhiding": 2776,
      "Ġfain": 2777,
      "Ġfavor": 2778,
      "ĠMundungus": 2779,
      "ude": 2780,
      "rows": 2781,
      "Ġfollowing": 2782,
      "Ġcount": 2783,
      "Ġfinger": 2784,
      "Ġattempt": 2785,
      "ĠParvati": 2786,
      "Ġafraid": 2787,
      "Ġopposite": 2788,
      "Hagrid": 2789,
      "TH": 2790,
      "its": 2791,
      "Ġcry": 2792,
      "ĠDad": 2793,
      "ander": 2794,
      "Ġdeal": 2795,
      "Ġswung": 2796,
      "Ġenjoy": 2797,
      "Ġspeaking": 2798,
      "Ġdeterm": 2799,
      "Ġpresent": 2800,
      "Ġmirror": 2801,
      "ton": 2802,
      "ony": 2803,
      "irrell": 2804,
      "Ġforce": 2805,
      "ĠBuckbeak": 2806,
      "elve": 2807,
      "Ġsecret": 2808,
      "Ġlisten": 2809,
      "Ġpiece": 2810,
      "Ġsingle": 2811,
      "Ġextremely": 2812,
      "Can": 2813,
      "In": 2814,
      "Ġtow": 2815,
      "ĠTom": 2816,
      "Ġrepl": 2817,
      "gelin": 2818,
      "Ġtrust": 2819,
      "Ġarg": 2820,
      "Ġdiscus": 2821,
      "Ġimpati": 2822,
      "Ġfuriously": 2823,
      "ĠScabbers": 2824,
      "gelina": 2825,
      "RE": 2826,
      "back": 2827,
      "inting": 2828,
      "Ġmass": 2829,
      "Ġpack": 2830,
      "Ġconv": 2831,
      "Ġplaced": 2832,
      "Ġmeans": 2833,
      "Ġwondering": 2834,
      "Ġcoun": 2835,
      "Ġpossess": 2836,
      "Ġpurple": 2837,
      "ĠErn": 2838,
      "Ġimmediately": 2839,
      "Ġfood": 2840,
      "Ġhesit": 2841,
      "ĠTo": 2842,
      "aded": 2843,
      "Ġnotice": 2844,
      "blem": 2845,
      "Ġchange": 2846,
      "Ġspir": 2847,
      "Ġgrinning": 2848,
      "Ġbring": 2849,
      "Ġkeeping": 2850,
      "ĠBlud": 2851,
      "Ġeyeb": 2852,
      "TE": 2853,
      "how": 2854,
      "Ġtip": 2855,
      "hered": 2856,
      "Ġbound": 2857,
      "Ġdie": 2858,
      "tern": 2859,
      "Ġsmell": 2860,
      "Ġdisg": 2861,
      "Ġfootsteps": 2862,
      "Ġdisappeared": 2863,
      "ĠFirebolt": 2864,
      "Ġdormitory": 2865,
      "VE": 2866,
      "that": 2867,
      "lliv": 2868,
      "Ġnast": 2869,
      "Ġstrode": 2870,
      "Ġlibr": 2871,
      "Ġwhatever": 2872,
      "Ġroll": 2873,
      "izing": 2874,
      "Ġvoices": 2875,
      "Ġwaited": 2876,
      "ĠAngelina": 2877,
      "ĠSeverus": 2878,
      "Ġhastily": 2879,
      "Very": 2880,
      "rtle": 2881,
      "tig": 2882,
      "Ġwarm": 2883,
      "arled": 2884,
      "Ġble": 2885,
      "Ġline": 2886,
      "Ġpri": 2887,
      "leep": 2888,
      "Ġstep": 2889,
      "orting": 2890,
      "Ġpassage": 2891,
      "ĠQuirrell": 2892,
      "Ġjoin": 2893,
      "ĠSlytherins": 2894,
      "Ġmarble": 2895,
      "Ġweeks": 2896,
      "Ġknocked": 2897,
      "Ġbellowed": 2898,
      "Ġcirc": 2899,
      "Ġdoubt": 2900,
      "THE": 2901,
      "ker": 2902,
      "night": 2903,
      "Ġfixed": 2904,
      "llent": 2905,
      "Ġlanded": 2906,
      "Ġsend": 2907,
      "Ġje": 2908,
      "ĠOlliv": 2909,
      "ogra": 2910,
      "unno": 2911,
      "Ġhomework": 2912,
      "Ġtouch": 2913,
      "Ġpractice": 2914,
      "tigrew": 2915,
      "af": 2916,
      "ring": 2917,
      "ury": 2918,
      "Ġ\".": 2919,
      "itched": 2920,
      "ads": 2921,
      "cellent": 2922,
      "Ġrid": 2923,
      "Ġlive": 2924,
      "Ġattacked": 2925,
      "Ġterrified": 2926,
      "Ġbedroom": 2927,
      "Ġpowerful": 2928,
      "bot": 2929,
      "clock": 2930,
      "een": 2931,
      "ived": 2932,
      "tled": 2933,
      "uing": 2934,
      "Ġterm": 2935,
      "Ġsick": 2936,
      "Ġpath": 2937,
      "Ġele": 2938,
      "ĠTower": 2939,
      "Ġrolled": 2940,
      "Ġdep": 2941,
      "Ġusually": 2942,
      "Ġscared": 2943,
      "Ġremind": 2944,
      "Ġreading": 2945,
      "Ġminute": 2946,
      "Ġfigure": 2947,
      "ournament": 2948,
      "come": 2949,
      "inct": 2950,
      "Ġcauldron": 2951,
      "Ġdress": 2952,
      "Ġpage": 2953,
      "Ġgrabb": 2954,
      "Ġur": 2955,
      "Ġtwelve": 2956,
      "Ġenc": 2957,
      "ables": 2958,
      "Ġprefect": 2959,
      "Ġafterno": 2960,
      "Ġlocket": 2961,
      "Ġmeeting": 2962,
      "Ġnearer": 2963,
      "Ġholid": 2964,
      "Ġlibrary": 2965,
      "ĠOllivander": 2966,
      "aked": 2967,
      "oney": 2968,
      "ĠLily": 2969,
      "ĠWeasleys": 2970,
      "Ġglad": 2971,
      "Ġgrim": 2972,
      "inned": 2973,
      "ĠPettigrew": 2974,
      "Ġnervously": 2975,
      "Ġfirmly": 2976,
      "ls": 2977,
      "Ġtask": 2978,
      "reed": 2979,
      "org": 2980,
      "Ġmag": 2981,
      "Ġgard": 2982,
      "Ġeart": 2983,
      "Ġshowed": 2984,
      "ĠBur": 2985,
      "ĠCurse": 2986,
      "Ġdelight": 2987,
      "Ġcannot": 2988,
      "Ġprophe": 2989,
      "Ġproblem": 2990,
      "Ġsne": 2991,
      "Ġfollow": 2992,
      "ĠYOU": 2993,
      "Ġsusp": 2994,
      "Ġparticularly": 2995,
      "Ġphot": 2996,
      "Ġgroup": 2997,
      "AN": 2998,
      "fer": 2999,
      "iant": 3000,
      "atter": 3001,
      "omp": 3002,
      "Ġbeard": 3003,
      "Ġrock": 3004,
      "Ġspent": 3005,
      "ibly": 3006,
      "ĠArthur": 3007,
      "Ġplaying": 3008,
      "ĠMyrtle": 3009,
      "Ġsoftly": 3010,
      "ĠAppar": 3011,
      "arlie": 3012,
      "Ġafternoon": 3013,
      "Bl": 3014,
      "OO": 3015,
      "arily": 3016,
      "ides": 3017,
      "Ġincl": 3018,
      "ĠNor": 3019,
      "Ġthinks": 3020,
      "Ġglit": 3021,
      "though": 3022,
      "Ġowls": 3023,
      "Ġrecognized": 3024,
      "IR": 3025,
      "ior": 3026,
      "Ġtroll": 3027,
      "Ġhon": 3028,
      "arc": 3029,
      "atie": 3030,
      "eng": 3031,
      "enix": 3032,
      "ested": 3033,
      "Ġgro": 3034,
      "irth": 3035,
      "Ġreve": 3036,
      "ĠNick": 3037,
      "hoenix": 3038,
      "ugged": 3039,
      "Ġwaving": 3040,
      "Ġamong": 3041,
      "Ġhalfway": 3042,
      "Ġdefin": 3043,
      "Ġfallen": 3044,
      "Ġcopy": 3045,
      "Ġnormal": 3046,
      "Ġbathroom": 3047,
      "ian": 3048,
      "nce": 3049,
      "Ġfist": 3050,
      "Ġoh": 3051,
      "Ġperm": 3052,
      "otts": 3053,
      "Ġasleep": 3054,
      "Ġsevent": 3055,
      "ĠWhere": 3056,
      "Ġworked": 3057,
      "Ġcurse": 3058,
      "Ġsideways": 3059,
      "Ġdiary": 3060,
      "Ġspells": 3061,
      "Ġprophecy": 3062,
      "fig": 3063,
      "Ġmap": 3064,
      "Ġgen": 3065,
      "lease": 3066,
      "otion": 3067,
      "Ġseven": 3068,
      "ĠWh": 3069,
      "olly": 3070,
      "ollow": 3071,
      "Ġexcit": 3072,
      "Ġheavily": 3073,
      "Ġdeserted": 3074,
      "Ġconversation": 3075,
      "Ġsuspic": 3076,
      "Get": 3077,
      "mo": 3078,
      "Ġcage": 3079,
      "Ġpow": 3080,
      "ĠSee": 3081,
      "ĠFang": 3082,
      "Ġchanged": 3083,
      "ieve": 3084,
      "ĠKatie": 3085,
      "Ġcorridors": 3086,
      "Ġfighting": 3087,
      "ĠPrime": 3088,
      "Ġshadow": 3089,
      "set": 3090,
      "under": 3091,
      "wizard": 3092,
      "Ġtom": 3093,
      "Ġdri": 3094,
      "irty": 3095,
      "ĠMum": 3096,
      "isten": 3097,
      "Ġalarm": 3098,
      "Ġbrain": 3099,
      "Ġshoulders": 3100,
      "Ġfalling": 3101,
      "Ġbrightly": 3102,
      "Ġexplain": 3103,
      "centr": 3104,
      "Ġapproached": 3105,
      "Ġdetermined": 3106,
      "ST": 3107,
      "du": 3108,
      "tic": 3109,
      "Ġtrave": 3110,
      "Ġsy": 3111,
      "Ġsank": 3112,
      "Ġgrave": 3113,
      "Ġyer": 3114,
      "Ġbeaming": 3115,
      "Ġeat": 3116,
      "ooped": 3117,
      "Ġstat": 3118,
      "ĠMiss": 3119,
      "ĠMax": 3120,
      "Ġrece": 3121,
      "Ġsho": 3122,
      "Ġleaned": 3123,
      "Ġtrick": 3124,
      "Ġgrass": 3125,
      "ĠCharlie": 3126,
      "Ġhurrying": 3127,
      "Ġsurface": 3128,
      "Ġcurtain": 3129,
      "Ġclosely": 3130,
      "Ġcrossed": 3131,
      "Ġcertainly": 3132,
      "Ġhanging": 3133,
      "Ġfrowning": 3134,
      "Ġtrembling": 3135,
      "ĠMaxime": 3136,
      "Ġess": 3137,
      "rets": 3138,
      "Ġcand": 3139,
      "Ġemb": 3140,
      "aling": 3141,
      "ceed": 3142,
      "Ġpost": 3143,
      "Ġsqueak": 3144,
      "ĠMadame": 3145,
      "Ġmissed": 3146,
      "Ġhoping": 3147,
      "Ġthrowing": 3148,
      "Ġstretched": 3149,
      "ĠPatronus": 3150,
      "Ġnasty": 3151,
      "Ġgarden": 3152,
      "Ġearth": 3153,
      "As": 3154,
      "cious": 3155,
      "Ġbirth": 3156,
      "idly": 3157,
      "Ġpu": 3158,
      "ann": 3159,
      "Ġbew": 3160,
      "ĠGo": 3161,
      "Ġjump": 3162,
      "ĠLe": 3163,
      "ction": 3164,
      "Ġusing": 3165,
      "oph": 3166,
      "Ġskin": 3167,
      "Ġanger": 3168,
      "Ġscarlet": 3169,
      "ĠTrans": 3170,
      "Mr": 3171,
      "lace": 3172,
      "ope": 3173,
      "Ġaff": 3174,
      "Ġwin": 3175,
      "ĠDid": 3176,
      "ĠDep": 3177,
      "illy": 3178,
      "Ġrow": 3179,
      "Ġcompl": 3180,
      "ĠEven": 3181,
      "Ġcheer": 3182,
      "Ġmaybe": 3183,
      "Ġsplit": 3184,
      "Ġmonths": 3185,
      "Ġeagerly": 3186,
      "Ġeyebrows": 3187,
      "Ġtables": 3188,
      "Ġworth": 3189,
      "Ġfool": 3190,
      "Ġfacing": 3191,
      "attered": 3192,
      "Ġoften": 3193,
      "Ġink": 3194,
      "ots": 3195,
      "ĠTwo": 3196,
      "umin": 3197,
      "cks": 3198,
      "Ġunless": 3199,
      "Ġcloud": 3200,
      "bbed": 3201,
      "ĠOh": 3202,
      "Ġsmoot": 3203,
      "Ġseems": 3204,
      "Ġappl": 3205,
      "Ġputting": 3206,
      "Ġmurm": 3207,
      "Ġperfectly": 3208,
      "bottom": 3209,
      "Ġtomorrow": 3210,
      "Re": 3211,
      "oss": 3212,
      "zed": 3213,
      "ĠZ": 3214,
      "asant": 3215,
      "Ġdra": 3216,
      "Ġinvis": 3217,
      "Ġgame": 3218,
      "Ġones": 3219,
      "Ġliked": 3220,
      "Ġvill": 3221,
      "Ġspark": 3222,
      "ĠOF": 3223,
      "Ġwaved": 3224,
      "Ġsnarled": 3225,
      "ney": 3226,
      "Ġrealize": 3227,
      "Ġdistant": 3228,
      "Ġnervous": 3229,
      "Ġeffort": 3230,
      "Ġcenta": 3231,
      "bed": 3232,
      "yway": 3233,
      "ĠX": 3234,
      "Ġcro": 3235,
      "Ġdread": 3236,
      "Ġlunch": 3237,
      "Ġinj": 3238,
      "icing": 3239,
      "Ġrain": 3240,
      "ingsley": 3241,
      "Ġbusiness": 3242,
      "Ġevid": 3243,
      "Ġnearest": 3244,
      "Ġpressed": 3245,
      "Ġemerged": 3246,
      "Ġimpatiently": 3247,
      "ĠErnie": 3248,
      "ograph": 3249,
      "Maybe": 3250,
      "Ġsoul": 3251,
      "Ġinches": 3252,
      "ances": 3253,
      "Ġsave": 3254,
      "ott": 3255,
      "ĠPe": 3256,
      "illing": 3257,
      "ĠLong": 3258,
      "uding": 3259,
      "anting": 3260,
      "Ġsuff": 3261,
      "Ġconcentr": 3262,
      "Ġune": 3263,
      "Ġhanded": 3264,
      "Ġpret": 3265,
      "Ġbusy": 3266,
      "reyback": 3267,
      "Ġfifty": 3268,
      "Ġzoom": 3269,
      "Ġechoed": 3270,
      "ĠDepartment": 3271,
      "Your": 3272,
      "ek": 3273,
      "inary": 3274,
      "Ġfun": 3275,
      "Ġearly": 3276,
      "vel": 3277,
      "ĠIm": 3278,
      "ĠRem": 3279,
      "ilius": 3280,
      "ĠGreyback": 3281,
      "Ġjer": 3282,
      "Ġgoblet": 3283,
      "ĠLee": 3284,
      "Ġpoor": 3285,
      "Ġspeed": 3286,
      "Ġshouldn": 3287,
      "Ġperform": 3288,
      "Ġmuttering": 3289,
      "Ġexplo": 3290,
      "Ġquestions": 3291,
      "ING": 3292,
      "Ġfrightened": 3293,
      "Ġobviously": 3294,
      "Ġunable": 3295,
      "Ġinvisible": 3296,
      "Ġpretty": 3297,
      "OT": 3298,
      "ected": 3299,
      "of": 3300,
      "Ġhig": 3301,
      "isf": 3302,
      "Ġasking": 3303,
      "ĠSpell": 3304,
      "ĠDel": 3305,
      "Ġwitches": 3306,
      "alle": 3307,
      "Ġshowing": 3308,
      "Ġlips": 3309,
      "Ġmoon": 3310,
      "Ġthoughts": 3311,
      "Ġwhisper": 3312,
      "Ġscreaming": 3313,
      "Ġthrown": 3314,
      "Ġgrowled": 3315,
      "Ġhesitated": 3316,
      "Okay": 3317,
      "When": 3318,
      "val": 3319,
      "Ġward": 3320,
      "ĠWand": 3321,
      "Ġneither": 3322,
      "ĠCorn": 3323,
      "ants": 3324,
      "ongue": 3325,
      "omething": 3326,
      "ĠKingsley": 3327,
      "Ġappre": 3328,
      "Ġpassing": 3329,
      "Ġcupboard": 3330,
      "Ġdrawing": 3331,
      "Ġirrit": 3332,
      "Pot": 3333,
      "cern": 3334,
      "Ġsens": 3335,
      "Ġhide": 3336,
      "enoph": 3337,
      "Ġmen": 3338,
      "Ġmus": 3339,
      "Ġhissed": 3340,
      "rog": 3341,
      "ĠSpr": 3342,
      "ified": 3343,
      "ighed": 3344,
      "Ġflames": 3345,
      "Ġprep": 3346,
      "ĠStone": 3347,
      "Ġspotted": 3348,
      "ĠOnce": 3349,
      "Ġshrieked": 3350,
      "Ġposition": 3351,
      "enophilius": 3352,
      "fin": 3353,
      "oken": 3354,
      "Ġfil": 3355,
      "Ġpay": 3356,
      "velo": 3357,
      "Ġstuck": 3358,
      "roy": 3359,
      "Ġspect": 3360,
      "Ġcontrol": 3361,
      "unned": 3362,
      "ilda": 3363,
      "Ġguess": 3364,
      "Ġfault": 3365,
      "Ġgrabbed": 3366,
      "Ġgra": 3367,
      "ĠMark": 3368,
      "Ġund": 3369,
      "ĠWas": 3370,
      "Ġclot": 3371,
      "Ġslight": 3372,
      "Ġtwice": 3373,
      "Ġench": 3374,
      "Ġmoments": 3375,
      "apping": 3376,
      "Ġletters": 3377,
      "Ġsharp": 3378,
      "Because": 3379,
      "Ġoccas": 3380,
      "Ġhuman": 3381,
      "ĠBludger": 3382,
      "ĠTransfig": 3383,
      "Go": 3384,
      "WEN": 3385,
      "arg": 3386,
      "ĠPh": 3387,
      "ĠAur": 3388,
      "pected": 3389,
      "quire": 3390,
      "Ġcharm": 3391,
      "Ġspread": 3392,
      "Ġplat": 3393,
      "Ġcomfort": 3394,
      "thy": 3395,
      "Ġprev": 3396,
      "ucked": 3397,
      "Ġentire": 3398,
      "ĠChamber": 3399,
      "Ġhelped": 3400,
      "Ġparty": 3401,
      "Ġcarried": 3402,
      "Ġbadly": 3403,
      "Ġprotect": 3404,
      "ĠHorcruxes": 3405,
      "Ġwriting": 3406,
      "Ġeasy": 3407,
      "Ġwooden": 3408,
      "TEEN": 3409,
      "Ġdefinitely": 3410,
      "Ġbirthday": 3411,
      "ĠLongbottom": 3412,
      "ĠSprout": 3413,
      "),": 3414,
      "born": 3415,
      "ias": 3416,
      "uice": 3417,
      "Ġfit": 3418,
      "Ġcour": 3419,
      "Ġpitch": 3420,
      "Ġreach": 3421,
      "ĠWor": 3422,
      "ĠLove": 3423,
      "Ġworst": 3424,
      "Ġyellow": 3425,
      "ĠHowever": 3426,
      "Ġseats": 3427,
      "Ġmidair": 3428,
      "Ġcolor": 3429,
      "WENTY": 3430,
      "GH": 3431,
      "ding": 3432,
      "ium": 3433,
      "mm": 3434,
      "Ġwake": 3435,
      "Ġthreat": 3436,
      "Ġpure": 3437,
      "Ġnine": 3438,
      "lder": 3439,
      "utter": 3440,
      "ĠAN": 3441,
      "ĠGalle": 3442,
      "inked": 3443,
      "Ġnois": 3444,
      "ulus": 3445,
      "ĠNearly": 3446,
      "Ġunple": 3447,
      "Ġthanks": 3448,
      "ĠPotion": 3449,
      "Ġteach": 3450,
      "Ġunderstood": 3451,
      "Ġhighly": 3452,
      "Ġcompartment": 3453,
      "Ġdisappo": 3454,
      "Ġrefle": 3455,
      "Ġinterested": 3456,
      "ĠCharms": 3457,
      "Ġfresh": 3458,
      "Ġobjects": 3459,
      "Ġdungeon": 3460,
      "ĠXenophilius": 3461,
      "ner": 3462,
      "Ġtone": 3463,
      "Ġblock": 3464,
      "Ġcard": 3465,
      "Ġmer": 3466,
      "Ġnames": 3467,
      "Ġshining": 3468,
      "Ġupward": 3469,
      "Ġexper": 3470,
      "Ġdel": 3471,
      "els": 3472,
      "Ġthank": 3473,
      "Ġgrowing": 3474,
      "Ġsnat": 3475,
      "ĠQuaff": 3476,
      "Ġsounding": 3477,
      "Ġlifted": 3478,
      "Ġshouting": 3479,
      "Ġcoldly": 3480,
      "racted": 3481,
      "Ġpatch": 3482,
      "rivet": 3483,
      "Ġleading": 3484,
      "Ġgloom": 3485,
      "Ġannoy": 3486,
      "Ġfamiliar": 3487,
      "LL": 3488,
      "aunt": 3489,
      "cess": 3490,
      "den": 3491,
      "io": 3492,
      "ses": 3493,
      "Ġbin": 3494,
      "Ġbre": 3495,
      "Ġhearing": 3496,
      "Ġlur": 3497,
      "Ġpile": 3498,
      "Ġpause": 3499,
      "Ġpacked": 3500,
      "ĠTri": 3501,
      "ĠSm": 3502,
      "ĠDrive": 3503,
      "gered": 3504,
      "Ġrising": 3505,
      "antic": 3506,
      "Ġdownstairs": 3507,
      "ational": 3508,
      "Ġswept": 3509,
      "Ġremain": 3510,
      "Ġsatisf": 3511,
      "Ġcarri": 3512,
      "Ġseriously": 3513,
      "Ġgleaming": 3514,
      "Ġglittering": 3515,
      "Potter": 3516,
      "Ġplatform": 3517,
      "ĠTriwizard": 3518,
      "ait": 3519,
      "ik": 3520,
      "my": 3521,
      "ingotts": 3522,
      "Ġbird": 3523,
      "Ġbrill": 3524,
      "Ġlamp": 3525,
      "Ġbeat": 3526,
      "Ġstag": 3527,
      "ĠPrivet": 3528,
      "roud": 3529,
      "ĠWho": 3530,
      "ĠGod": 3531,
      "Then": 3532,
      "Ġimm": 3533,
      "Ġbitter": 3534,
      "Ġsounds": 3535,
      "ĠGringotts": 3536,
      "cial": 3537,
      "Ġinterrup": 3538,
      "Ġlucky": 3539,
      "Ġexcitedly": 3540,
      "haired": 3541,
      "ĠQuaffle": 3542,
      "faced": 3543,
      "well": 3544,
      "reg": 3545,
      "Ġhalt": 3546,
      "Ġwhist": 3547,
      "Ġjinx": 3548,
      "ouses": 3549,
      "eping": 3550,
      "Ġanybody": 3551,
      "Ġswall": 3552,
      "ineas": 3553,
      "dding": 3554,
      "Ġinstru": 3555,
      "Ġfurious": 3556,
      "Ġaware": 3557,
      "Ġcreatures": 3558,
      "Ġchampions": 3559,
      "Ġproperly": 3560,
      "Ġphotograph": 3561,
      "Ġexcitement": 3562,
      "Ġvillage": 3563,
      "Ar": 3564,
      "wise": 3565,
      "Ġsighed": 3566,
      "oned": 3567,
      "Ġfat": 3568,
      "itting": 3569,
      "Ġcool": 3570,
      "Ġdam": 3571,
      "Ġdunno": 3572,
      "Ġeh": 3573,
      "Ġrev": 3574,
      "urred": 3575,
      "ausing": 3576,
      "Ġarmch": 3577,
      "rief": 3578,
      "Ġbelong": 3579,
      "ĠThree": 3580,
      "Ġlouder": 3581,
      "Ġbreathing": 3582,
      "Ġhorror": 3583,
      "Ġdeeply": 3584,
      "Ġdetention": 3585,
      "Ġshortly": 3586,
      "forth": 3587,
      "Ġmiser": 3588,
      "Ġmurd": 3589,
      "Ġburning": 3590,
      "Ġwarning": 3591,
      "Listen": 3592,
      "Sorry": 3593,
      "gr": 3594,
      "Ġage": 3595,
      "Ġmum": 3596,
      "Ġsaved": 3597,
      "irst": 3598,
      "uration": 3599,
      "ĠAber": 3600,
      "Ġsoared": 3601,
      "Ġsomehow": 3602,
      "Ġlift": 3603,
      "Ġfirepl": 3604,
      "Ġstudent": 3605,
      "Thank": 3606,
      "Ġcover": 3607,
      "Ġescape": 3608,
      "Ġeffect": 3609,
      "Ġlearned": 3610,
      "Ġsolid": 3611,
      "On": 3612,
      "See": 3613,
      "zy": 3614,
      "Ġfold": 3615,
      "ency": 3616,
      "omfort": 3617,
      "Ġrang": 3618,
      "Ġsped": 3619,
      "Ġamaz": 3620,
      "Ġimpression": 3621,
      "ĠGryffindors": 3622,
      "Ġsque": 3623,
      "Ġcareful": 3624,
      "ivination": 3625,
      "Ġlowered": 3626,
      "Ġrelief": 3627,
      "ĠHeadless": 3628,
      "ĠReg": 3629,
      "while": 3630,
      "colate": 3631,
      "Ġfavorite": 3632,
      "Ġspectac": 3633,
      "good": 3634,
      "post": 3635,
      "sion": 3636,
      "ues": 3637,
      "Ġtest": 3638,
      "Ġlanding": 3639,
      "oof": 3640,
      "agon": 3641,
      "riff": 3642,
      "ĠTheir": 3643,
      "ĠBy": 3644,
      "ĠFat": 3645,
      "Ġknowing": 3646,
      "Ġconcern": 3647,
      "Ġheaded": 3648,
      "Here": 3649,
      "action": 3650,
      "ugging": 3651,
      "Ġsurely": 3652,
      "Thanks": 3653,
      "Ġfamous": 3654,
      "Ġfurther": 3655,
      "Ġcalmly": 3656,
      "Ġavoid": 3657,
      "Ġdestroy": 3658,
      "Ġholidays": 3659,
      "Ġdelighted": 3660,
      "ĠTransfiguration": 3661,
      "aving": 3662,
      "bly": 3663,
      "bers": 3664,
      "ivering": 3665,
      "Ġwra": 3666,
      "Ġfo": 3667,
      "Ġfier": 3668,
      "Ġpound": 3669,
      "Ġstri": 3670,
      "key": 3671,
      "ilt": 3672,
      "ific": 3673,
      "Ġlived": 3674,
      "Ġabrup": 3675,
      "elius": 3676,
      "Ġunf": 3677,
      "ieved": 3678,
      "Ġsmoke": 3679,
      "ĠKeep": 3680,
      "Ġsilvery": 3681,
      "Ġsurv": 3682,
      "ĠStan": 3683,
      "Ġresp": 3684,
      "Ġpersu": 3685,
      "Ġdementor": 3686,
      "Dobby": 3687,
      "Ġcreature": 3688,
      "Ġgrip": 3689,
      "Ġclothes": 3690,
      "bidden": 3691,
      "gly": 3692,
      "pose": 3693,
      "Ġsize": 3694,
      "Ġwings": 3695,
      "Ġhood": 3696,
      "Ġbab": 3697,
      "Ġmoney": 3698,
      "Ġlawn": 3699,
      "Ġstick": 3700,
      "ĠMor": 3701,
      "unted": 3702,
      "ĠCol": 3703,
      "Ġgoal": 3704,
      "Ġlikely": 3705,
      "Ġspider": 3706,
      "Ġscene": 3707,
      "Ġeverybody": 3708,
      "olved": 3709,
      "Ġhappening": 3710,
      "Ġpeering": 3711,
      "Ġremo": 3712,
      "Ġhurry": 3713,
      "Ġfinal": 3714,
      "issa": 3715,
      "Ġexpelled": 3716,
      "ensieve": 3717,
      "Ġdefe": 3718,
      "Ġwritten": 3719,
      "Ġanxiously": 3720,
      "Ġpanic": 3721,
      "arcissa": 3722,
      "Ġhigher": 3723,
      "ĠPhineas": 3724,
      "ipping": 3725,
      "tor": 3726,
      "ines": 3727,
      "Ġmine": 3728,
      "Ġpill": 3729,
      "Ġinf": 3730,
      "Ġgigg": 3731,
      "aging": 3732,
      "ĠPensieve": 3733,
      "pper": 3734,
      "Ġbutter": 3735,
      "ĠLady": 3736,
      "Ġconce": 3737,
      "Ġslammed": 3738,
      "Ġjoke": 3739,
      "Ġserious": 3740,
      "Ġrubb": 3741,
      "Ġincred": 3742,
      "Ġdesperately": 3743,
      "Ġpriv": 3744,
      "Ġsmooth": 3745,
      "ossible": 3746,
      "ĠAberforth": 3747,
      "SE": 3748,
      "sc": 3749,
      "arr": 3750,
      "Ġmood": 3751,
      "Ġproud": 3752,
      "Ġinno": 3753,
      "Ġgul": 3754,
      "Ġeight": 3755,
      "Ġstream": 3756,
      "irt": 3757,
      "ores": 3758,
      "Ġkid": 3759,
      "unity": 3760,
      "ils": 3761,
      "Ġfeast": 3762,
      "Ġagreed": 3763,
      "ctions": 3764,
      "Ġuncle": 3765,
      "ogriff": 3766,
      "Ġtwins": 3767,
      "Ġclean": 3768,
      "Ġcorre": 3769,
      "ĠPerhaps": 3770,
      "Ġdragged": 3771,
      "rawp": 3772,
      "Ġnearby": 3773,
      "Ġdirectly": 3774,
      "ippogriff": 3775,
      "ĠDisapp": 3776,
      "Ġoccasion": 3777,
      "nze": 3778,
      "Ġserv": 3779,
      "res": 3780,
      "asted": 3781,
      "Ġpanted": 3782,
      "Ġstation": 3783,
      "Ġugly": 3784,
      "ember": 3785,
      "Ġva": 3786,
      "isting": 3787,
      "Ġanywhere": 3788,
      "Ġimpossible": 3789,
      "Ġbelieved": 3790,
      "Ġdistance": 3791,
      "Ġmembers": 3792,
      "Ġslee": 3793,
      "cuse": 3794,
      "Ġmovement": 3795,
      "Ġmistake": 3796,
      "Ġprotection": 3797,
      "Ġdouble": 3798,
      "ounced": 3799,
      "Ġscrat": 3800,
      "Ġsuggested": 3801,
      "ĠLovegood": 3802,
      "Ġfierce": 3803,
      "bye": 3804,
      "year": 3805,
      "Ġben": 3806,
      "oose": 3807,
      "uttered": 3808,
      "Ġweight": 3809,
      "ĠTH": 3810,
      "urm": 3811,
      "ĠDivination": 3812,
      "Ġdozen": 3813,
      "Ġwerewo": 3814,
      "ĠGrawp": 3815,
      "umbling": 3816,
      "udo": 3817,
      "athilda": 3818,
      "Ġflung": 3819,
      "Ġsometimes": 3820,
      "Ġboard": 3821,
      "ĠNobody": 3822,
      "ĠEveryone": 3823,
      "Ġescaped": 3824,
      "Ġmissing": 3825,
      "Ġchildren": 3826,
      "orgin": 3827,
      "Ġgener": 3828,
      "ĠCornelius": 3829,
      "Ġwerewolf": 3830,
      "Some": 3831,
      "Snape": 3832,
      "co": 3833,
      "cto": 3834,
      "cul": 3835,
      "eled": 3836,
      "father": 3837,
      "Ġtreat": 3838,
      "Ġfury": 3839,
      "Ġsad": 3840,
      "Ġlie": 3841,
      "udblood": 3842,
      "ourney": 3843,
      "bbly": 3844,
      "anging": 3845,
      "Ġloads": 3846,
      "Ġbrand": 3847,
      "Ġcleared": 3848,
      "Ġsquare": 3849,
      "ĠYour": 3850,
      "ertainly": 3851,
      "Ġattempted": 3852,
      "ĠDisappar": 3853,
      "Never": 3854,
      "gden": 3855,
      "mer": 3856,
      "tling": 3857,
      "Ġaim": 3858,
      "ature": 3859,
      "Ġcas": 3860,
      "Ġpou": 3861,
      "ĠMost": 3862,
      "ĠRoom": 3863,
      "Ġring": 3864,
      "Ġexch": 3865,
      "Ġpoison": 3866,
      "ĠNarcissa": 3867,
      "Ġblind": 3868,
      "estly": 3869,
      "reatures": 3870,
      "Ġplain": 3871,
      "Ġheading": 3872,
      "Ġeverywhere": 3873,
      "Ġlocked": 3874,
      "Ġopening": 3875,
      "Ġharder": 3876,
      "Ġdrop": 3877,
      "Ġuncomfort": 3878,
      "Ġexplained": 3879,
      "Ġtouched": 3880,
      "ĠPrince": 3881,
      "Ġgoblins": 3882,
      "Ġcurtains": 3883,
      "ĠColin": 3884,
      "Have": 3885,
      "aud": 3886,
      "do": 3887,
      "Ġwished": 3888,
      "Ġhippogriff": 3889,
      "Ġdim": 3890,
      "Ġpaused": 3891,
      "Ġwel": 3892,
      "urity": 3893,
      "rier": 3894,
      "unks": 3895,
      "ĠBorgin": 3896,
      "iles": 3897,
      "Ġrage": 3898,
      "Ġfee": 3899,
      "ĠCome": 3900,
      "ĠCreatures": 3901,
      "ĠLet": 3902,
      "Ġalthough": 3903,
      "Ġsuit": 3904,
      "elw": 3905,
      "Ġchairs": 3906,
      "angled": 3907,
      "ondon": 3908,
      "Ġtrack": 3909,
      "Ġglance": 3910,
      "Ġbran": 3911,
      "uffy": 3912,
      "Ġraising": 3913,
      "Ġindign": 3914,
      "Ġaccident": 3915,
      "Ġconfused": 3916,
      "Ġtriump": 3917,
      "Ġhoped": 3918,
      "Ġprevious": 3919,
      "ĠWorld": 3920,
      "ĠGalleons": 3921,
      "Ġbreaking": 3922,
      ").": 3923,
      "RY": 3924,
      "VEN": 3925,
      "aved": 3926,
      "gar": 3927,
      "hus": 3928,
      "zz": 3929,
      "ĠYes": 3930,
      "Ġmain": 3931,
      "Ġstir": 3932,
      "ĠMer": 3933,
      "ĠSorting": 3934,
      "ĠDon": 3935,
      "Ġjourney": 3936,
      "ĠLondon": 3937,
      "ĠOgden": 3938,
      "Ġtele": 3939,
      "Ġcontact": 3940,
      "Ġfinish": 3941,
      "Ġsquee": 3942,
      "Ġdived": 3943,
      "ĠAlley": 3944,
      "Ġhundreds": 3945,
      "ĠFirenze": 3946,
      "Ġimagine": 3947,
      "Ġanxious": 3948,
      "Ġstruggling": 3949,
      "Ġbasin": 3950,
      "Ġdemanded": 3951,
      "Ġbutterbe": 3952,
      "Lagg": 3953,
      "iry": 3954,
      "ov": 3955,
      "Ġwave": 3956,
      "Ġfair": 3957,
      "Ġtoad": 3958,
      "Ġchat": 3959,
      "lly": 3960,
      "Ġmount": 3961,
      "Ġpen": 3962,
      "oted": 3963,
      "Ġstro": 3964,
      "ĠMarge": 3965,
      "ĠSomething": 3966,
      "agged": 3967,
      "ayed": 3968,
      "ooked": 3969,
      "ĠLudo": 3970,
      "ules": 3971,
      "Ġspace": 3972,
      "ĠOf": 3973,
      "Ġglancing": 3974,
      "Ġwrite": 3975,
      "shot": 3976,
      "Ġsettled": 3977,
      "Ġbroad": 3978,
      "Ġmarched": 3979,
      "Nothing": 3980,
      "Ġgaze": 3981,
      "strang": 3982,
      "Ġshadows": 3983,
      "Ġscramb": 3984,
      "Laggen": 3985,
      "aun": 3986,
      "Ġtap": 3987,
      "Ġsour": 3988,
      "llus": 3989,
      "Ġlower": 3990,
      "using": 3991,
      "usion": 3992,
      "ĠIs": 3993,
      "ety": 3994,
      "ading": 3995,
      "Ġant": 3996,
      "Ġvague": 3997,
      "Ġpop": 3998,
      "elves": 3999,
      "imey": 4000,
      "aping": 4001,
      "Ġsmir": 4002,
      "Ġgrand": 4003,
      "Ġkeen": 4004,
      "Ġbrown": 4005,
      "Ġfourth": 4006,
      "Ġvisible": 4007,
      "Ġripped": 4008,
      "Ġdisappear": 4009,
      "Ġshocked": 4010,
      "Ġchoice": 4011,
      "Ġechoing": 4012,
      "Ġfaint": 4013,
      "ĠBurrow": 4014,
      "Ġmurmured": 4015,
      "ĠGodric": 4016,
      "Ġswallowed": 4017,
      "Ġfireplace": 4018,
      ".'": 4019,
      "For": 4020,
      "cise": 4021,
      "par": 4022,
      "inced": 4023,
      "Ġbother": 4024,
      "ĠHalf": 4025,
      "Ġmakes": 4026,
      "Ġlim": 4027,
      "Ġpanting": 4028,
      "vey": 4029,
      "ĠTO": 4030,
      "amm": 4031,
      "Ġshudd": 4032,
      "iful": 4033,
      "Ġtherefore": 4034,
      "bbled": 4035,
      "Ġtwisted": 4036,
      "Ġdoorway": 4037,
      "Ġflash": 4038,
      "Ġnewsp": 4039,
      "ĠHallows": 4040,
      "Ġuseful": 4041,
      "Ġawake": 4042,
      "Ġleaves": 4043,
      "Ġbuild": 4044,
      "Ġinteresting": 4045,
      "Ġburned": 4046,
      "Ġchecking": 4047,
      "ĠFrank": 4048,
      "Ġcounter": 4049,
      "Ġreceived": 4050,
      "Ġarmchair": 4051,
      "urmstrang": 4052,
      "Ġtriumph": 4053,
      "Sirius": 4054,
      "aj": 4055,
      "bat": 4056,
      "ded": 4057,
      "ige": 4058,
      "word": 4059,
      "Ġtired": 4060,
      "inger": 4061,
      "Ġfan": 4062,
      "iders": 4063,
      "Ġpin": 4064,
      "Ġstrid": 4065,
      "ouldn": 4066,
      "ĠBr": 4067,
      "ĠBathilda": 4068,
      "ĠFin": 4069,
      "Ġleaning": 4070,
      "Ġlevel": 4071,
      "Ġnodding": 4072,
      "Ġdev": 4073,
      "Ġunw": 4074,
      "Ġhandle": 4075,
      "estr": 4076,
      "Ġgets": 4077,
      "Ġgrinned": 4078,
      "olute": 4079,
      "Ġlock": 4080,
      "Ġdesp": 4081,
      "ĠMcLaggen": 4082,
      "Ġlights": 4083,
      "Ġwhisp": 4084,
      "Ġdragons": 4085,
      "Ġgazed": 4086,
      "Ġfailed": 4087,
      "Ġeasily": 4088,
      "Ġignored": 4089,
      "Ġsuggest": 4090,
      "Ġattempting": 4091,
      "Ġmagn": 4092,
      "Ġstatue": 4093,
      "Ġunpleasant": 4094,
      "OW": 4095,
      "bow": 4096,
      "min": 4097,
      "tles": 4098,
      "ule": 4099,
      "what": 4100,
      "Ġrough": 4101,
      "Ġsway": 4102,
      "Ġwet": 4103,
      "arters": 4104,
      "Ġfart": 4105,
      "ities": 4106,
      "Ġcrying": 4107,
      "Ġcaused": 4108,
      "Ġdu": 4109,
      "Ġlad": 4110,
      "ache": 4111,
      "usted": 4112,
      "uri": 4113,
      "Ġnotes": 4114,
      "ĠWill": 4115,
      "une": 4116,
      "ĠCon": 4117,
      "Ġexcellent": 4118,
      "Ġunus": 4119,
      "ops": 4120,
      "Ġplate": 4121,
      "Ġorder": 4122,
      "Ġenvelo": 4123,
      "Ġprefer": 4124,
      "Ġteaching": 4125,
      "Ġkey": 4126,
      "awkes": 4127,
      "Ġexpecting": 4128,
      "renched": 4129,
      "aturday": 4130,
      "Ġappearance": 4131,
      "Ġcountry": 4132,
      "Ġbrilliant": 4133,
      "EA": 4134,
      "ES": 4135,
      "iol": 4136,
      "Ġslo": 4137,
      "Ġwife": 4138,
      "ĠHad": 4139,
      "Ġdressed": 4140,
      "Ġthunder": 4141,
      "Ġgest": 4142,
      "Ġbeaut": 4143,
      "oop": 4144,
      "ĠSaturday": 4145,
      "Ġreapp": 4146,
      "uries": 4147,
      "ĠDurmstrang": 4148,
      "stal": 4149,
      "ĠPo": 4150,
      "ĠPlace": 4151,
      "Ġkicked": 4152,
      "indelw": 4153,
      "Ġjud": 4154,
      "logy": 4155,
      "istory": 4156,
      "Ġyours": 4157,
      "Ġslip": 4158,
      "gged": 4159,
      "Ġsecurity": 4160,
      "Ġsneak": 4161,
      "Ġenthus": 4162,
      "Ġfellow": 4163,
      "Ġclasses": 4164,
      "Ġdistinct": 4165,
      "Ġexamining": 4166,
      "Ġaccomp": 4167,
      "Ġsweat": 4168,
      "Ġpretending": 4169,
      "quirement": 4170,
      "ĠAND": 4171,
      "Ġbaby": 4172,
      "indelwald": 4173,
      "Every": 4174,
      "Must": 4175,
      "Pl": 4176,
      "ech": 4177,
      "oh": 4178,
      "oon": 4179,
      "sure": 4180,
      "Ġtournament": 4181,
      "eding": 4182,
      "Ġbul": 4183,
      "Ġdirty": 4184,
      "Ġpump": 4185,
      "Ġstorm": 4186,
      "ĠSqu": 4187,
      "acket": 4188,
      "ĠBoth": 4189,
      "Ġknife": 4190,
      "Ġlives": 4191,
      "Ġviol": 4192,
      "Ġexist": 4193,
      "ults": 4194,
      "Ġchar": 4195,
      "Ġwanting": 4196,
      "Ġpeered": 4197,
      "Ġstands": 4198,
      "Ġhandsome": 4199,
      "Ġcalling": 4200,
      "Ġcontinue": 4201,
      "Ġbuy": 4202,
      "ĠBefore": 4203,
      "ĠRequirement": 4204,
      "Ġfigures": 4205,
      "Ġtort": 4206,
      "Ġpunish": 4207,
      "Ġtemper": 4208,
      "Ġcrystal": 4209,
      "Ġabruptly": 4210,
      "',": 4211,
      "ris": 4212,
      "Ġbrave": 4213,
      "ĠHistory": 4214,
      "Ġtoile": 4215,
      "Ġcrou": 4216,
      "Ġdying": 4217,
      "Ġpushing": 4218,
      "Ġinch": 4219,
      "omed": 4220,
      "Ġstad": 4221,
      "ĠMudblood": 4222,
      "ĠSl": 4223,
      "Ġshif": 4224,
      "aker": 4225,
      "Ġval": 4226,
      "ĠNige": 4227,
      "Ġblond": 4228,
      "Ġplaces": 4229,
      "ĠElder": 4230,
      "Ġsmashed": 4231,
      "Ġdesce": 4232,
      "Ġwrote": 4233,
      "Ġcurled": 4234,
      "iping": 4235,
      "Ġdifficul": 4236,
      "Ġdecide": 4237,
      "Ġdesperate": 4238,
      "Ġessay": 4239,
      "Ġremoved": 4240,
      "Ġstadium": 4241,
      "ĠNigellus": 4242,
      "Ġdifficulty": 4243,
      "'?\"": 4244,
      "ground": 4245,
      "over": 4246,
      "time": 4247,
      "ittle": 4248,
      "orough": 4249,
      "Ġdrif": 4250,
      "Ġstare": 4251,
      "icorn": 4252,
      "umed": 4253,
      "ĠBul": 4254,
      "Ġfeather": 4255,
      "ello": 4256,
      "arty": 4257,
      "Ġdeli": 4258,
      "eless": 4259,
      "Ġconst": 4260,
      "angling": 4261,
      "Ġglaring": 4262,
      "Ġglimp": 4263,
      "Ġmuff": 4264,
      "Ġhelping": 4265,
      "ansy": 4266,
      "Ġindic": 4267,
      "Ġpossibly": 4268,
      "fortun": 4269,
      "Ġcompany": 4270,
      "Ġillumin": 4271,
      "ĠFrom": 4272,
      "Ġwildly": 4273,
      "Ġorders": 4274,
      "Ġeleven": 4275,
      "Ġurg": 4276,
      "Ġsqueaked": 4277,
      "ĠPeople": 4278,
      "Ġfilthy": 4279,
      "Ġinstructions": 4280,
      "Ġinnocent": 4281,
      "Ġbutterbeer": 4282,
      "IGH": 4283,
      "One": 4284,
      "Per": 4285,
      "cher": 4286,
      "kn": 4287,
      "sand": 4288,
      "uce": 4289,
      "Ġtied": 4290,
      "Ġaunt": 4291,
      "Ġbought": 4292,
      "Ġdull": 4293,
      "Ġdancing": 4294,
      "Ġlap": 4295,
      "Ġphoenix": 4296,
      "Ġgig": 4297,
      "Ġgrew": 4298,
      "Ġgently": 4299,
      "Ġyard": 4300,
      "Ġyawn": 4301,
      "acour": 4302,
      "ĠMo": 4303,
      "ĠMaster": 4304,
      "ĠMolly": 4305,
      "Ġaston": 4306,
      "ĠDi": 4307,
      "stri": 4308,
      "ĠPig": 4309,
      "ĠPansy": 4310,
      "Ġrust": 4311,
      "Ġsocks": 4312,
      "Ġthousand": 4313,
      "Ġroar": 4314,
      "Ġoverhead": 4315,
      "Ġconj": 4316,
      "Ġscree": 4317,
      "Ġglow": 4318,
      "Ġfloating": 4319,
      "Ġfinding": 4320,
      "cient": 4321,
      "Ġdifference": 4322,
      "Ġdreams": 4323,
      "Ġfrozen": 4324,
      "ĠSecrets": 4325,
      "Ġtower": 4326,
      "Ġrolling": 4327,
      "ĠNorris": 4328,
      "ĠSeeker": 4329,
      "ĠDelacour": 4330,
      "Ġexperi": 4331,
      "Ġcarriage": 4332,
      "iktor": 4333,
      "Ġwhistle": 4334,
      "Ġrubbish": 4335,
      "Ġstriding": 4336,
      "Ġgigantic": 4337,
      "Hello": 4338,
      "Voldemort": 4339,
      "bel": 4340,
      "kward": 4341,
      "mp": 4342,
      "Ġtaught": 4343,
      "Ġhar": 4344,
      "ert": 4345,
      "arse": 4346,
      "Ġbust": 4347,
      "asy": 4348,
      "Ġthorough": 4349,
      "Ġpick": 4350,
      "Ġeating": 4351,
      "Ġstiff": 4352,
      "Ġstars": 4353,
      "icy": 4354,
      "Ġweird": 4355,
      "Ġanim": 4356,
      "Ġsepar": 4357,
      "Ġkiss": 4358,
      "Ġupset": 4359,
      "top": 4360,
      "ĠFel": 4361,
      "ĠFawkes": 4362,
      "Ġjus": 4363,
      "Ġgrin": 4364,
      "Ġeng": 4365,
      "sidered": 4366,
      "Ġprevent": 4367,
      "Ġlose": 4368,
      "Ġcontr": 4369,
      "Ġcrash": 4370,
      "Ġclearing": 4371,
      "Ġhorse": 4372,
      "ĠGrimm": 4373,
      "Ġawkward": 4374,
      "Ġstaying": 4375,
      "Ġmurder": 4376,
      "Ġsimple": 4377,
      "Ġoddly": 4378,
      "Ġsleeping": 4379,
      "Ġsprinted": 4380,
      "Ġclutched": 4381,
      "Ġbattle": 4382,
      "Ġmentioned": 4383,
      "Ġtransform": 4384,
      "Ġwonderful": 4385,
      "Ġchampion": 4386,
      "Ġsurrounded": 4387,
      "ĠMorfin": 4388,
      "ĠGrimmauld": 4389,
      "hand": 4390,
      "ipe": 4391,
      "ibb": 4392,
      "iped": 4393,
      "son": 4394,
      "Ġtunn": 4395,
      "Ġblo": 4396,
      "Ġbog": 4397,
      "Ġbald": 4398,
      "Ġfully": 4399,
      "Ġearn": 4400,
      "Ġstunned": 4401,
      "ĠTw": 4402,
      "Ġrese": 4403,
      "rian": 4404,
      "Ġsending": 4405,
      "ĠBroom": 4406,
      "ĠGaunt": 4407,
      "Ġjet": 4408,
      "quarters": 4409,
      "Ġvar": 4410,
      "Ġages": 4411,
      "Ġconsidered": 4412,
      "Ġscri": 4413,
      "aux": 4414,
      "Ġflick": 4415,
      "Ġlosing": 4416,
      "aws": 4417,
      "Ġstudy": 4418,
      "Ġbreathed": 4419,
      "Ġbadge": 4420,
      "Ġanswered": 4421,
      "Ġsweet": 4422,
      "Ġplanning": 4423,
      "Ġcircle": 4424,
      "Ġdiscovered": 4425,
      "Ġstruggled": 4426,
      "Ġmessage": 4427,
      "Ġcrept": 4428,
      "Ġsurrounding": 4429,
      "Ġreminded": 4430,
      "Ġzoomed": 4431,
      "Ġprivate": 4432,
      "Ġvault": 4433,
      "Hi": 4434,
      "Le": 4435,
      "lass": 4436,
      "line": 4437,
      "Ġtongue": 4438,
      "Ġwound": 4439,
      "reen": 4440,
      "Ġbowed": 4441,
      "Ġcoo": 4442,
      "Ġcamp": 4443,
      "Ġhell": 4444,
      "Ġlaid": 4445,
      "lebr": 4446,
      "ĠMung": 4447,
      "Ġneat": 4448,
      "Ġrum": 4449,
      "Ġchuck": 4450,
      "Ġunlike": 4451,
      "Ġunicorn": 4452,
      "ĠKing": 4453,
      "Ġbecoming": 4454,
      "uffled": 4455,
      "Ġcontents": 4456,
      "Ġhoarse": 4457,
      "uddy": 4458,
      "Ġenter": 4459,
      "Ġterror": 4460,
      "Ġsupport": 4461,
      "Ġskull": 4462,
      "ensive": 4463,
      "Ġgreet": 4464,
      "Ġbrooms": 4465,
      "cio": 4466,
      "Ġstraightened": 4467,
      "Ġstuffed": 4468,
      "Ġstreng": 4469,
      "axley": 4470,
      "Ġmidnight": 4471,
      "Ġobvious": 4472,
      "Ġpowers": 4473,
      "ceeded": 4474,
      "Ġcroaked": 4475,
      "ĠImper": 4476,
      "Ġdisappointed": 4477,
      "Ġfolded": 4478,
      "uriel": 4479,
      "ĠMungo": 4480,
      "ED": 4481,
      "ID": 4482,
      "Wh": 4483,
      "cut": 4484,
      "Ġ1": 4485,
      "heard": 4486,
      "Ġbank": 4487,
      "Ġfought": 4488,
      "ĠHoo": 4489,
      "ĠHollow": 4490,
      "attering": 4491,
      "Ġcow": 4492,
      "Ġdry": 4493,
      "Ġdue": 4494,
      "Ġmotion": 4495,
      "Ġgn": 4496,
      "Ġner": 4497,
      "Ġstate": 4498,
      "ume": 4499,
      "ĠGru": 4500,
      "Ġrisk": 4501,
      "ĠCare": 4502,
      "ĠFigg": 4503,
      "Ġbacked": 4504,
      "Ġspiders": 4505,
      "Ġglared": 4506,
      "Ġgras": 4507,
      "Ġswear": 4508,
      "Ġdism": 4509,
      "Ġdrown": 4510,
      "reaked": 4511,
      "ĠGrindelwald": 4512,
      "Ġdeeper": 4513,
      "ĠAnyway": 4514,
      "Ġmemories": 4515,
      "Ġcelebr": 4516,
      "Ġreport": 4517,
      "Ġconsider": 4518,
      "Ġapplause": 4519,
      "Ġentirely": 4520,
      "Ġinterrupted": 4521,
      "Ġwelcome": 4522,
      "Ġscrambled": 4523,
      "batons": 4524,
      "Ġfarther": 4525,
      "Plank": 4526,
      "ĠDiagon": 4527,
      "auxbatons": 4528,
      "ĠGrubbly": 4529,
      ",'": 4530,
      "Course": 4531,
      "ccl": 4532,
      "dge": 4533,
      "uly": 4534,
      "Ġhorn": 4535,
      "Ġbrief": 4536,
      "ĠHat": 4537,
      "Ġdaz": 4538,
      "irling": 4539,
      "ĠMuriel": 4540,
      "Ġfort": 4541,
      "ĠAd": 4542,
      "Ġgoes": 4543,
      "Ġsucc": 4544,
      "Ġwhenever": 4545,
      "Ġmod": 4546,
      "Ġgrate": 4547,
      "Ġclock": 4548,
      "Ġclosing": 4549,
      "Ġbringing": 4550,
      "Ġprodu": 4551,
      "ordan": 4552,
      "Ġcracked": 4553,
      "Ġclever": 4554,
      "ails": 4555,
      "Ġdistur": 4556,
      "ĠBeauxbatons": 4557,
      "Ġrefused": 4558,
      "Ġerup": 4559,
      "Ġimagined": 4560,
      "Ġshrugged": 4561,
      "Ġspiral": 4562,
      "Ġincluding": 4563,
      "Ġbitterly": 4564,
      "arrass": 4565,
      "Ġsleeve": 4566,
      "Ġnewspaper": 4567,
      "Al": 4568,
      "IC": 4569,
      "Ne": 4570,
      "book": 4571,
      "ky": 4572,
      "Ġtur": 4573,
      "Ġamb": 4574,
      "Ġthestr": 4575,
      "Ġbod": 4576,
      "itude": 4577,
      "Ġcausing": 4578,
      "Ġdashed": 4579,
      "omm": 4580,
      "icia": 4581,
      "ĠMac": 4582,
      "Ġsea": 4583,
      "Ġshoot": 4584,
      "Ġris": 4585,
      "Ġlip": 4586,
      "Ġiss": 4587,
      "Ġchin": 4588,
      "Ġspun": 4589,
      "Ġscow": 4590,
      "Ġscra": 4591,
      "Ġclapped": 4592,
      "Ġflood": 4593,
      "bert": 4594,
      "Ġstruck": 4595,
      "Ġimpressed": 4596,
      "onscious": 4597,
      "eyed": 4598,
      "Ġcrowded": 4599,
      "ĠYaxley": 4600,
      "OUR": 4601,
      "Ġincre": 4602,
      "Ġportraits": 4603,
      "steries": 4604,
      "Ġcenter": 4605,
      "Ġadmit": 4606,
      "Ġconvinced": 4607,
      "ength": 4608,
      "Ġdrawn": 4609,
      "Ġsparks": 4610,
      "Ġevidence": 4611,
      "ajam": 4612,
      "Ġenvelope": 4613,
      "Ġtoilet": 4614,
      "Ġthoroughly": 4615,
      "ĠHooch": 4616,
      "cclum": 4617,
      "Or": 4618,
      "ixt": 4619,
      "Ġid": 4620,
      "Ġsinging": 4621,
      "Ġwis": 4622,
      "Ġtot": 4623,
      "Ġcapt": 4624,
      "Ġpred": 4625,
      "Ġbeak": 4626,
      "outs": 4627,
      "Ġwear": 4628,
      "ented": 4629,
      "Ġrap": 4630,
      "astically": 4631,
      "istress": 4632,
      "Ġroad": 4633,
      "Ġconn": 4634,
      "Ġhanding": 4635,
      "Ġgotten": 4636,
      "aptain": 4637,
      "Ġtrunks": 4638,
      "Ġswell": 4639,
      "Ġbottles": 4640,
      "Ġdarkly": 4641,
      "Ġneeds": 4642,
      "ission": 4643,
      "ĠDoge": 4644,
      "aughter": 4645,
      "ĠPeter": 4646,
      "Ġdropping": 4647,
      "ĠAlicia": 4648,
      "Ġrelieved": 4649,
      "Ġinterv": 4650,
      "Ġopport": 4651,
      "Ġfifth": 4652,
      "ĠExp": 4653,
      "aturally": 4654,
      "Ġmarks": 4655,
      "Ġdiscuss": 4656,
      "IRTY": 4657,
      "Ġtraveling": 4658,
      "Ġbewild": 4659,
      "Ġprepared": 4660,
      "ĠAuror": 4661,
      "Ġstaggered": 4662,
      "ĠRegulus": 4663,
      "Ġspectacles": 4664,
      "ĠKeeper": 4665,
      "ovitch": 4666,
      "Ġvaguely": 4667,
      "Ġwhispering": 4668,
      "Ġtunnel": 4669,
      "Ġbogg": 4670,
      "AT": 4671,
      "Keep": 4672,
      "Me": 4673,
      "Mad": 4674,
      "aim": 4675,
      "foot": 4676,
      "mos": 4677,
      "pes": 4678,
      "wid": 4679,
      "Ġing": 4680,
      "Ġwed": 4681,
      "Ġwid": 4682,
      "Ġwore": 4683,
      "Ġfal": 4684,
      "Ġfang": 4685,
      "Ġfaced": 4686,
      "ator": 4687,
      "Ġpajam": 4688,
      "use": 4689,
      "uttering": 4690,
      "ĠTournament": 4691,
      "Ġash": 4692,
      "Ġrequ": 4693,
      "urg": 4694,
      "amped": 4695,
      "ledge": 4696,
      "Ġrules": 4697,
      "ĠCan": 4698,
      "ĠFe": 4699,
      "ĠLestr": 4700,
      "Ġaband": 4701,
      "Ġaloud": 4702,
      "Ġoffered": 4703,
      "ĠNever": 4704,
      "ĠViktor": 4705,
      "Ġplenty": 4706,
      "Ġplates": 4707,
      "Ġclen": 4708,
      "ĠOcclum": 4709,
      "Ġcomes": 4710,
      "Ġspecial": 4711,
      "Ġprison": 4712,
      "Ġamount": 4713,
      "Ġolder": 4714,
      "Ġpleasure": 4715,
      "Ġforever": 4716,
      "Ġboat": 4717,
      "Ġexams": 4718,
      "ĠOnly": 4719,
      "Ġrubbing": 4720,
      "Ġwarned": 4721,
      "Ġbrothers": 4722,
      "Ġbarrier": 4723,
      "Ġignoring": 4724,
      "Ġsunlight": 4725,
      "Ġeggs": 4726,
      "Ġmassive": 4727,
      "Ġembarrass": 4728,
      "Really": 4729,
      "Ġcorrect": 4730,
      "Ġaccompan": 4731,
      "Ġmuffled": 4732,
      "riana": 4733,
      "widgeon": 4734,
      "De": 4735,
      "Please": 4736,
      "gress": 4737,
      "iver": 4738,
      "ini": 4739,
      "Ġsink": 4740,
      "Ġwiping": 4741,
      "Ġhate": 4742,
      "Ġband": 4743,
      "ato": 4744,
      "Ġcous": 4745,
      "asantly": 4746,
      "Ġmumbled": 4747,
      "Ġpicking": 4748,
      "Ġsav": 4749,
      "ooping": 4750,
      "Ġweather": 4751,
      "adem": 4752,
      "ĠSp": 4753,
      "agog": 4754,
      "ribly": 4755,
      "ĠRos": 4756,
      "Ġshown": 4757,
      "ĠBarty": 4758,
      "ĠCauldron": 4759,
      "Ġgod": 4760,
      "que": 4761,
      "Ġvast": 4762,
      "Ġexh": 4763,
      "Ġnowhere": 4764,
      "ivered": 4765,
      "Ġarr": 4766,
      "idding": 4767,
      "Ġbrisk": 4768,
      "ĠChas": 4769,
      "unged": 4770,
      "Ġended": 4771,
      "Ġkeeps": 4772,
      "aze": 4773,
      "ĠStill": 4774,
      "Ġsteal": 4775,
      "retched": 4776,
      "Ġdistracted": 4777,
      "Ġkindly": 4778,
      "Ġserp": 4779,
      "theless": 4780,
      "Ġknocking": 4781,
      "Ġchecked": 4782,
      "ĠNothing": 4783,
      "Ġgrimly": 4784,
      "Ġpubl": 4785,
      "ĠRemus": 4786,
      "Ġwrapped": 4787,
      "merta": 4788,
      "olutely": 4789,
      "ĠPigwidgeon": 4790,
      "Got": 4791,
      "pted": 4792,
      "ract": 4793,
      "Ġtill": 4794,
      "Ġwrenched": 4795,
      "oning": 4796,
      "arger": 4797,
      "Ġfake": 4798,
      "ĠHigh": 4799,
      "atively": 4800,
      "orovitch": 4801,
      "Ġhex": 4802,
      "Ġdawn": 4803,
      "Ġpages": 4804,
      "omas": 4805,
      "Ġbear": 4806,
      "Ġstu": 4807,
      "orest": 4808,
      "ries": 4809,
      "Ġank": 4810,
      "Ġself": 4811,
      "ĠAriana": 4812,
      "Ġshape": 4813,
      "ĠGreg": 4814,
      "ĠForest": 4815,
      "Ġvict": 4816,
      "Ġroots": 4817,
      "Ġblame": 4818,
      "Ġblinked": 4819,
      "Ġspeech": 4820,
      "Ġsilently": 4821,
      "Ġimpro": 4822,
      "Ġcuriously": 4823,
      "Ġraise": 4824,
      "ship": 4825,
      "Ġsitu": 4826,
      "ĠJordan": 4827,
      "osen": 4828,
      "Ġpainful": 4829,
      "Ġdecis": 4830,
      "Ġburied": 4831,
      "Ġmatters": 4832,
      "Ġpictures": 4833,
      "Ġoccurred": 4834,
      "ONE": 4835,
      "Ġsafely": 4836,
      "ĠSeveral": 4837,
      "Ġbowl": 4838,
      "Ġfamilies": 4839,
      "Ġdusty": 4840,
      "Ġseventh": 4841,
      "Ġfoolish": 4842,
      "Ġcentaur": 4843,
      "Ġcentaurs": 4844,
      "Ġirritably": 4845,
      "Ġpounding": 4846,
      "Ġpersuade": 4847,
      "Ġfiercely": 4848,
      "ĠBroomstick": 4849,
      "AC": 4850,
      "IS": 4851,
      "Kreacher": 4852,
      "Master": 4853,
      "Sir": 4854,
      "UR": 4855,
      "UT": 4856,
      "Yeh": 4857,
      "lve": 4858,
      "lish": 4859,
      "Ġident": 4860,
      "Ġutter": 4861,
      "Ġtapped": 4862,
      "Ġsong": 4863,
      "rer": 4864,
      "Ġcaut": 4865,
      "asc": 4866,
      "asing": 4867,
      "Ġlarger": 4868,
      "Ġthir": 4869,
      "Ġpool": 4870,
      "icious": 4871,
      "robe": 4872,
      "Ġweap": 4873,
      "Ġrele": 4874,
      "ĠRo": 4875,
      "ĠPhoenix": 4876,
      "Ġshake": 4877,
      "Ġneigh": 4878,
      "ilisk": 4879,
      "Ġshelves": 4880,
      "Ġlies": 4881,
      "igan": 4882,
      "Ġknowledge": 4883,
      "Ġblow": 4884,
      "inns": 4885,
      "Ġremaining": 4886,
      "Ġaccept": 4887,
      "ĠNext": 4888,
      "Ġarmor": 4889,
      "Ġsniff": 4890,
      "Ġmustache": 4891,
      "Ġbeds": 4892,
      "ĠInst": 4893,
      "Ġwrist": 4894,
      "Ġcurious": 4895,
      "ĠThough": 4896,
      "ĠThomas": 4897,
      "Ġsetting": 4898,
      "Ġstartled": 4899,
      "Ġcoat": 4900,
      "Ġstayed": 4901,
      "bology": 4902,
      "ĠMysteries": 4903,
      "Ġevil": 4904,
      "Ġcollap": 4905,
      "Ġgiants": 4906,
      "Ġrecognize": 4907,
      "Ġblankly": 4908,
      "Ġsearch": 4909,
      "Ġreplied": 4910,
      "Ġappreci": 4911,
      "Ġnoises": 4912,
      "Ġsnatched": 4913,
      "Ġbranches": 4914,
      "Ġbeautiful": 4915,
      "ĠImperius": 4916,
      "Ġboggart": 4917,
      ".'\"": 4918,
      "Named": 4919,
      "bble": 4920,
      "dy": 4921,
      "ex": 4922,
      "Ġourse": 4923,
      "Ġaut": 4924,
      "Ġach": 4925,
      "Ġsides": 4926,
      "erth": 4927,
      "Ġban": 4928,
      "Ġborrow": 4929,
      "Ġintend": 4930,
      "Ġgarg": 4931,
      "Ġbeamed": 4932,
      "Ġstar": 4933,
      "Ġstern": 4934,
      "uture": 4935,
      "ĠMe": 4936,
      "ĠMap": 4937,
      "chief": 4938,
      "Ġshrill": 4939,
      "ĠWI": 4940,
      "ĠBinns": 4941,
      "Ġrush": 4942,
      "ĠCatter": 4943,
      "ustr": 4944,
      "ulously": 4945,
      "Ġchosen": 4946,
      "icken": 4947,
      "arkins": 4948,
      "Ġsched": 4949,
      "Ġplans": 4950,
      "ĠOwl": 4951,
      "Ġcomment": 4952,
      "Ġgrown": 4953,
      "Ġflight": 4954,
      "Ġways": 4955,
      "ording": 4956,
      "Ġdesire": 4957,
      "ilder": 4958,
      "lier": 4959,
      "Ġrespect": 4960,
      "Ġinstantly": 4961,
      "Ġcarp": 4962,
      "Ġmember": 4963,
      "rawled": 4964,
      "Ġsigns": 4965,
      "Ġplayed": 4966,
      "HAT": 4967,
      "Ġunconscious": 4968,
      "Ġyounger": 4969,
      "Ġsprang": 4970,
      "Ġregret": 4971,
      "Ġintrod": 4972,
      "Ġthrust": 4973,
      "Ġvelve": 4974,
      "Any": 4975,
      "Ġglee": 4976,
      "Ġenjoying": 4977,
      "Ġbleeding": 4978,
      "mole": 4979,
      "anned": 4980,
      "Ġcheerful": 4981,
      "Ġdreadful": 4982,
      "ottage": 4983,
      "auder": 4984,
      "Ġidi": 4985,
      "Ġwedding": 4986,
      "Ġpajamas": 4987,
      "ĠOcclumency": 4988,
      "Ġgodfather": 4989,
      "Ġourselves": 4990,
      "arkinson": 4991,
      "Malfoy": 4992,
      "band": 4993,
      "uch": 4994,
      "Ġicy": 4995,
      "Ġhated": 4996,
      "Ġbuck": 4997,
      "Ġcell": 4998,
      "Ġlump": 4999
    },
    "merges": [
      [
        "Ġ",
        "t"
      ],
      [
        "h",
        "e"
      ],
      [
        "Ġ",
        "a"
      ],
      [
        "i",
        "n"
      ],
      [
        "Ġ",
        "s"
      ],
      [
        "Ġ",
        "w"
      ],
      [
        "Ġt",
        "he"
      ],
      [
        "r",
        "e"
      ],
      [
        "o",
        "u"
      ],
      [
        "Ġ",
        "h"
      ],
      [
        "e",
        "d"
      ],
      [
        "o",
        "n"
      ],
      [
        "in",
        "g"
      ],
      [
        "e",
        "r"
      ],
      [
        "a",
        "r"
      ],
      [
        "n",
        "d"
      ],
      [
        "Ġ",
        "b"
      ],
      [
        "Ġ",
        "\""
      ],
      [
        "Ġ",
        "f"
      ],
      [
        "Ġ",
        "o"
      ],
      [
        "Ġ",
        "H"
      ],
      [
        "a",
        "t"
      ],
      [
        "i",
        "s"
      ],
      [
        "Ġt",
        "o"
      ],
      [
        "i",
        "t"
      ],
      [
        "Ġ",
        "c"
      ],
      [
        "a",
        "s"
      ],
      [
        "o",
        "r"
      ],
      [
        "l",
        "l"
      ],
      [
        "i",
        "d"
      ],
      [
        "Ġ",
        "he"
      ],
      [
        "Ġ",
        "d"
      ],
      [
        "e",
        "n"
      ],
      [
        "Ġ",
        "m"
      ],
      [
        "Ġ",
        "l"
      ],
      [
        "Ġa",
        "nd"
      ],
      [
        "Ġt",
        "h"
      ],
      [
        "Ġo",
        "f"
      ],
      [
        "Ġ",
        "."
      ],
      [
        "r",
        "y"
      ],
      [
        "Ġ",
        "p"
      ],
      [
        "e",
        "s"
      ],
      [
        "Ġh",
        "a"
      ],
      [
        "Ġ",
        "in"
      ],
      [
        "Ġ",
        "g"
      ],
      [
        "a",
        "n"
      ],
      [
        "Ġ",
        "n"
      ],
      [
        "l",
        "e"
      ],
      [
        "ar",
        "ry"
      ],
      [
        "o",
        "w"
      ],
      [
        "Ġs",
        "a"
      ],
      [
        "l",
        "y"
      ],
      [
        "ĠH",
        "arry"
      ],
      [
        "o",
        "t"
      ],
      [
        "Ġ",
        "y"
      ],
      [
        "o",
        "m"
      ],
      [
        "Ġw",
        "as"
      ],
      [
        "Ġb",
        "e"
      ],
      [
        "g",
        "h"
      ],
      [
        "'",
        "s"
      ],
      [
        "Ġsa",
        "id"
      ],
      [
        "a",
        "c"
      ],
      [
        "Ġ",
        "e"
      ],
      [
        "l",
        "d"
      ],
      [
        "Ġy",
        "ou"
      ],
      [
        "Ġh",
        "is"
      ],
      [
        "i",
        "m"
      ],
      [
        "u",
        "s"
      ],
      [
        "v",
        "e"
      ],
      [
        "o",
        "o"
      ],
      [
        "Ġs",
        "t"
      ],
      [
        "Ġ",
        "it"
      ],
      [
        "Ġ",
        "I"
      ],
      [
        "Ġ",
        "on"
      ],
      [
        "i",
        "c"
      ],
      [
        "e",
        "t"
      ],
      [
        ",",
        "\""
      ],
      [
        "v",
        "er"
      ],
      [
        "i",
        "on"
      ],
      [
        "r",
        "o"
      ],
      [
        "Ġw",
        "h"
      ],
      [
        "i",
        "r"
      ],
      [
        "Ġha",
        "d"
      ],
      [
        "Ġth",
        "at"
      ],
      [
        "u",
        "t"
      ],
      [
        "gh",
        "t"
      ],
      [
        "â",
        "Ģ"
      ],
      [
        "âĢ",
        "Ķ"
      ],
      [
        "Ġ",
        "M"
      ],
      [
        "ou",
        "t"
      ],
      [
        "Ġ",
        "âĢĶ"
      ],
      [
        "Ġw",
        "e"
      ],
      [
        "en",
        "t"
      ],
      [
        "Ġ",
        "T"
      ],
      [
        "a",
        "d"
      ],
      [
        "Ġa",
        "t"
      ],
      [
        "Ġ",
        "u"
      ],
      [
        "Ġa",
        "s"
      ],
      [
        "Ġ",
        "S"
      ],
      [
        "Ġ",
        "re"
      ],
      [
        "u",
        "r"
      ],
      [
        "a",
        "l"
      ],
      [
        "Ġ",
        "D"
      ],
      [
        "o",
        "re"
      ],
      [
        "s",
        "e"
      ],
      [
        "Ġh",
        "im"
      ],
      [
        "?",
        "\""
      ],
      [
        "a",
        "g"
      ],
      [
        "s",
        "t"
      ],
      [
        "r",
        "i"
      ],
      [
        "Ġ",
        "R"
      ],
      [
        "'",
        "t"
      ],
      [
        "Ġw",
        "it"
      ],
      [
        "k",
        "e"
      ],
      [
        "c",
        "h"
      ],
      [
        "a",
        "y"
      ],
      [
        "oo",
        "k"
      ],
      [
        "ou",
        "ld"
      ],
      [
        "Ġwit",
        "h"
      ],
      [
        "re",
        "d"
      ],
      [
        "Ġa",
        "n"
      ],
      [
        "Ġf",
        "or"
      ],
      [
        "a",
        "m"
      ],
      [
        "Ġs",
        "e"
      ],
      [
        "he",
        "r"
      ],
      [
        "u",
        "m"
      ],
      [
        "Ġ",
        "P"
      ],
      [
        "t",
        "er"
      ],
      [
        "p",
        "p"
      ],
      [
        "a",
        "ll"
      ],
      [
        "Ġn",
        "ot"
      ],
      [
        "ĠR",
        "on"
      ],
      [
        "ĠT",
        "he"
      ],
      [
        "i",
        "ll"
      ],
      [
        "ac",
        "k"
      ],
      [
        "r",
        "ou"
      ],
      [
        "ar",
        "d"
      ],
      [
        "Ġ",
        "A"
      ],
      [
        ".",
        "\""
      ],
      [
        "l",
        "ed"
      ],
      [
        "Ġs",
        "h"
      ],
      [
        "Ġ",
        "k"
      ],
      [
        "er",
        "m"
      ],
      [
        "!",
        "\""
      ],
      [
        "ĠH",
        "e"
      ],
      [
        "p",
        "e"
      ],
      [
        "Ġhe",
        "r"
      ],
      [
        "a",
        "in"
      ],
      [
        "e",
        "m"
      ],
      [
        "Ġl",
        "ook"
      ],
      [
        "Ġ",
        "W"
      ],
      [
        "ion",
        "e"
      ],
      [
        "erm",
        "ione"
      ],
      [
        "Ġu",
        "p"
      ],
      [
        "Ġf",
        "r"
      ],
      [
        "ĠH",
        "ermione"
      ],
      [
        "Ġd",
        "o"
      ],
      [
        "i",
        "ght"
      ],
      [
        "Ġthe",
        "y"
      ],
      [
        "es",
        "s"
      ],
      [
        "Ġ",
        "out"
      ],
      [
        "c",
        "e"
      ],
      [
        "u",
        "n"
      ],
      [
        "a",
        "nd"
      ],
      [
        "in",
        "d"
      ],
      [
        "g",
        "e"
      ],
      [
        "Ġ",
        "B"
      ],
      [
        "Ġwe",
        "re"
      ],
      [
        "Ġm",
        "e"
      ],
      [
        "Ġn",
        "e"
      ],
      [
        "Ġk",
        "n"
      ],
      [
        "Ġthe",
        "m"
      ],
      [
        "t",
        "o"
      ],
      [
        "t",
        "ed"
      ],
      [
        "i",
        "l"
      ],
      [
        "Ġ",
        "G"
      ],
      [
        "Ġ",
        "r"
      ],
      [
        "Ġf",
        "e"
      ],
      [
        "Ġ",
        "C"
      ],
      [
        "Ġa",
        "ll"
      ],
      [
        "Ġb",
        "ut"
      ],
      [
        "a",
        "k"
      ],
      [
        "i",
        "f"
      ],
      [
        "Ġs",
        "he"
      ],
      [
        "Ġha",
        "ve"
      ],
      [
        "Ġfr",
        "om"
      ],
      [
        "Ġ",
        "F"
      ],
      [
        "Ġ",
        "j"
      ],
      [
        "um",
        "b"
      ],
      [
        "h",
        "ing"
      ],
      [
        "us",
        "t"
      ],
      [
        "Ġg",
        "o"
      ],
      [
        "c",
        "k"
      ],
      [
        "om",
        "e"
      ],
      [
        "ver",
        "y"
      ],
      [
        "oo",
        "d"
      ],
      [
        "e",
        "ll"
      ],
      [
        "Ġs",
        "o"
      ],
      [
        "as",
        "t"
      ],
      [
        "he",
        "d"
      ],
      [
        "on",
        "e"
      ],
      [
        "Ġw",
        "he"
      ],
      [
        "b",
        "le"
      ],
      [
        "l",
        "o"
      ],
      [
        "Ġb",
        "ack"
      ],
      [
        "q",
        "u"
      ],
      [
        "umb",
        "led"
      ],
      [
        "or",
        "t"
      ],
      [
        "Ġl",
        "i"
      ],
      [
        "Ġin",
        "to"
      ],
      [
        "id",
        "e"
      ],
      [
        "ow",
        "n"
      ],
      [
        "Ġ",
        "L"
      ],
      [
        "Ġd",
        "id"
      ],
      [
        "umbled",
        "ore"
      ],
      [
        "Ġwh",
        "o"
      ],
      [
        "Ġwh",
        "at"
      ],
      [
        "ar",
        "t"
      ],
      [
        "Ġc",
        "ould"
      ],
      [
        "Ġ",
        "v"
      ],
      [
        "u",
        "d"
      ],
      [
        "rou",
        "nd"
      ],
      [
        "an",
        "t"
      ],
      [
        "Ġbe",
        "en"
      ],
      [
        "r",
        "id"
      ],
      [
        "Ġ",
        "is"
      ],
      [
        "Ġth",
        "ou"
      ],
      [
        "ĠD",
        "umbledore"
      ],
      [
        "Ġa",
        "b"
      ],
      [
        "Ġl",
        "e"
      ],
      [
        "Ġe",
        "x"
      ],
      [
        "in",
        "k"
      ],
      [
        "ou",
        "r"
      ],
      [
        "Ġa",
        "g"
      ],
      [
        "Ġn",
        "o"
      ],
      [
        "is",
        "t"
      ],
      [
        "l",
        "f"
      ],
      [
        "r",
        "a"
      ],
      [
        "Ġ",
        "ro"
      ],
      [
        "ic",
        "e"
      ],
      [
        "ou",
        "s"
      ],
      [
        "c",
        "t"
      ],
      [
        "ĠâĢĶ",
        "\""
      ],
      [
        "Ġa",
        "l"
      ],
      [
        "on",
        "g"
      ],
      [
        "Ġd",
        "e"
      ],
      [
        "f",
        "f"
      ],
      [
        "Y",
        "ou"
      ],
      [
        "u",
        "l"
      ],
      [
        "ac",
        "e"
      ],
      [
        "Ġth",
        "is"
      ],
      [
        "o",
        "y"
      ],
      [
        "Ġo",
        "ver"
      ],
      [
        "er",
        "s"
      ],
      [
        "s",
        "s"
      ],
      [
        "le",
        "y"
      ],
      [
        "Ġw",
        "ould"
      ],
      [
        "k",
        "ed"
      ],
      [
        "Ġthe",
        "re"
      ],
      [
        "h",
        "at"
      ],
      [
        "Ġs",
        "u"
      ],
      [
        "i",
        "g"
      ],
      [
        "Ġkn",
        "ow"
      ],
      [
        "n",
        "a"
      ],
      [
        "Ġthe",
        "ir"
      ],
      [
        "e",
        "p"
      ],
      [
        "o",
        "ld"
      ],
      [
        "Ġp",
        "o"
      ],
      [
        "Ġd",
        "own"
      ],
      [
        "Ġab",
        "out"
      ],
      [
        "Ġof",
        "f"
      ],
      [
        "Ġan",
        "y"
      ],
      [
        "i",
        "z"
      ],
      [
        "v",
        "en"
      ],
      [
        "Ġag",
        "ain"
      ],
      [
        "e",
        "l"
      ],
      [
        "Ġc",
        "h"
      ],
      [
        "Ġon",
        "e"
      ],
      [
        "t",
        "her"
      ],
      [
        "Ġli",
        "ke"
      ],
      [
        "Ġ",
        "N"
      ],
      [
        "w",
        "ay"
      ],
      [
        "Ġlook",
        "ed"
      ],
      [
        "ur",
        "n"
      ],
      [
        "Ġs",
        "p"
      ],
      [
        "Ġn",
        "ow"
      ],
      [
        "Ġ",
        "qu"
      ],
      [
        "t",
        "ing"
      ],
      [
        "ic",
        "k"
      ],
      [
        "Ġ.",
        "\""
      ],
      [
        "Ġc",
        "on"
      ],
      [
        "Ġa",
        "round"
      ],
      [
        "Ġyou",
        "r"
      ],
      [
        "Ġ",
        "us"
      ],
      [
        "as",
        "s"
      ],
      [
        "Ġu",
        "n"
      ],
      [
        "i",
        "e"
      ],
      [
        "o",
        "p"
      ],
      [
        "im",
        "e"
      ],
      [
        "all",
        "y"
      ],
      [
        "Ġe",
        "y"
      ],
      [
        "a",
        "re"
      ],
      [
        "Ġha",
        "nd"
      ],
      [
        "ĠW",
        "e"
      ],
      [
        "'",
        "ve"
      ],
      [
        "u",
        "ll"
      ],
      [
        "Ġb",
        "y"
      ],
      [
        "Ġw",
        "or"
      ],
      [
        "Ġth",
        "ink"
      ],
      [
        "f",
        "ess"
      ],
      [
        "Ġg",
        "ot"
      ],
      [
        "Ġj",
        "ust"
      ],
      [
        "Ġthe",
        "n"
      ],
      [
        "ĠM",
        "r"
      ],
      [
        "e",
        "red"
      ],
      [
        "ĠP",
        "ro"
      ],
      [
        "fess",
        "or"
      ],
      [
        "Ġc",
        "an"
      ],
      [
        "ar",
        "k"
      ],
      [
        "ag",
        "rid"
      ],
      [
        "Ġs",
        "c"
      ],
      [
        "ri",
        "ght"
      ],
      [
        "a",
        "ke"
      ],
      [
        "Ġto",
        "o"
      ],
      [
        "Ġa",
        "re"
      ],
      [
        "Ġb",
        "l"
      ],
      [
        "es",
        "t"
      ],
      [
        "Ġse",
        "e"
      ],
      [
        "w",
        "ard"
      ],
      [
        "Ġg",
        "et"
      ],
      [
        "Ġ",
        "if"
      ],
      [
        "re",
        "at"
      ],
      [
        "Ġ",
        "V"
      ],
      [
        "Ġp",
        "l"
      ],
      [
        "Ġwhe",
        "n"
      ],
      [
        "Ġc",
        "l"
      ],
      [
        "u",
        "p"
      ],
      [
        "Ġ",
        "very"
      ],
      [
        "ĠH",
        "agrid"
      ],
      [
        "'",
        "re"
      ],
      [
        "Ġs",
        "l"
      ],
      [
        "Ġm",
        "y"
      ],
      [
        "e",
        "ar"
      ],
      [
        "a",
        "p"
      ],
      [
        "Ġm",
        "ore"
      ],
      [
        "Ġw",
        "and"
      ],
      [
        "b",
        "b"
      ],
      [
        "ĠPro",
        "fessor"
      ],
      [
        "Ġo",
        "r"
      ],
      [
        "Ġhe",
        "ad"
      ],
      [
        "na",
        "pe"
      ],
      [
        "am",
        "e"
      ],
      [
        "Ġ",
        "O"
      ],
      [
        "Ġm",
        "o"
      ],
      [
        "i",
        "ve"
      ],
      [
        "'",
        "ll"
      ],
      [
        "o",
        "g"
      ],
      [
        "Ġc",
        "om"
      ],
      [
        "ĠS",
        "nape"
      ],
      [
        "Ġthou",
        "gh"
      ],
      [
        "se",
        "lf"
      ],
      [
        "at",
        "e"
      ],
      [
        "ĠI",
        "t"
      ],
      [
        "'",
        "d"
      ],
      [
        "Ġt",
        "w"
      ],
      [
        "an",
        "g"
      ],
      [
        "Ġ",
        "E"
      ],
      [
        "as",
        "ley"
      ],
      [
        "Ġt",
        "ime"
      ],
      [
        "Ġs",
        "m"
      ],
      [
        "ĠWe",
        "asley"
      ],
      [
        "ou",
        "nd"
      ],
      [
        "Ġdo",
        "or"
      ],
      [
        "Ġst",
        "ill"
      ],
      [
        "pp",
        "ed"
      ],
      [
        "v",
        "ed"
      ],
      [
        "Ġh",
        "ow"
      ],
      [
        "rou",
        "gh"
      ],
      [
        "Ġv",
        "o"
      ],
      [
        "on",
        "d"
      ],
      [
        "Ġey",
        "es"
      ],
      [
        "at",
        "ion"
      ],
      [
        "a",
        "red"
      ],
      [
        "Ġt",
        "r"
      ],
      [
        "or",
        "n"
      ],
      [
        "Ġlook",
        "ing"
      ],
      [
        "Ġth",
        "an"
      ],
      [
        "v",
        "ing"
      ],
      [
        "i",
        "us"
      ],
      [
        "Ġd",
        "on"
      ],
      [
        "a",
        "ir"
      ],
      [
        "Ġt",
        "urn"
      ],
      [
        "T",
        "he"
      ],
      [
        "Ġf",
        "ace"
      ],
      [
        "Ġg",
        "l"
      ],
      [
        "Ġth",
        "rough"
      ],
      [
        "ic",
        "h"
      ],
      [
        "Ġs",
        "ome"
      ],
      [
        "f",
        "ore"
      ],
      [
        "it",
        "e"
      ],
      [
        "Ġ",
        "right"
      ],
      [
        "nd",
        "er"
      ],
      [
        "at",
        "h"
      ],
      [
        "u",
        "re"
      ],
      [
        "Ġa",
        "r"
      ],
      [
        "i",
        "ly"
      ],
      [
        "Ġg",
        "r"
      ],
      [
        "a",
        "u"
      ],
      [
        "al",
        "f"
      ],
      [
        "Ġgo",
        "ing"
      ],
      [
        "Ġvo",
        "ice"
      ],
      [
        "Ġse",
        "em"
      ],
      [
        "a",
        "ve"
      ],
      [
        "p",
        "t"
      ],
      [
        "Ġo",
        "ther"
      ],
      [
        "in",
        "n"
      ],
      [
        "g",
        "g"
      ],
      [
        "t",
        "le"
      ],
      [
        "i",
        "ous"
      ],
      [
        "i",
        "re"
      ],
      [
        "en",
        "ed"
      ],
      [
        "Ġwh",
        "ich"
      ],
      [
        "re",
        "e"
      ],
      [
        "Ġf",
        "l"
      ],
      [
        "Ġsa",
        "y"
      ],
      [
        "Ġs",
        "w"
      ],
      [
        "Ġthou",
        "ght"
      ],
      [
        "ot",
        "her"
      ],
      [
        "Ġbe",
        "fore"
      ],
      [
        "l",
        "ing"
      ],
      [
        "'",
        "m"
      ],
      [
        "ĠThe",
        "y"
      ],
      [
        "a",
        "us"
      ],
      [
        "Ġe",
        "very"
      ],
      [
        "f",
        "ter"
      ],
      [
        "o",
        "l"
      ],
      [
        "alf",
        "oy"
      ],
      [
        "Ġ",
        "U"
      ],
      [
        "om",
        "et"
      ],
      [
        "ĠP",
        "ot"
      ],
      [
        "Ġm",
        "an"
      ],
      [
        "a",
        "ble"
      ],
      [
        "Ġhe",
        "re"
      ],
      [
        "Ġdid",
        "n"
      ],
      [
        "w",
        "n"
      ],
      [
        "Ġw",
        "ill"
      ],
      [
        "ĠM",
        "alfoy"
      ],
      [
        "Ġro",
        "om"
      ],
      [
        "Ġ",
        "en"
      ],
      [
        "id",
        "d"
      ],
      [
        "a",
        "b"
      ],
      [
        "c",
        "hed"
      ],
      [
        "ak",
        "ing"
      ],
      [
        "ad",
        "e"
      ],
      [
        "or",
        "m"
      ],
      [
        "t",
        "h"
      ],
      [
        "Ġo",
        "p"
      ],
      [
        "f",
        "t"
      ],
      [
        "Ġl",
        "ong"
      ],
      [
        "o",
        "d"
      ],
      [
        "s",
        "ide"
      ],
      [
        "Ġp",
        "re"
      ],
      [
        "i",
        "le"
      ],
      [
        "W",
        "hat"
      ],
      [
        "Ġon",
        "ly"
      ],
      [
        "Ġ",
        "im"
      ],
      [
        "em",
        "ort"
      ],
      [
        "old",
        "emort"
      ],
      [
        "Ġ",
        "K"
      ],
      [
        "k",
        "ing"
      ],
      [
        "ar",
        "ing"
      ],
      [
        "Ġw",
        "at"
      ],
      [
        "h",
        "o"
      ],
      [
        "Ġs",
        "omet"
      ],
      [
        "Ġt",
        "e"
      ],
      [
        "Ġsa",
        "w"
      ],
      [
        "t",
        "s"
      ],
      [
        "Ġc",
        "lo"
      ],
      [
        "Ġu",
        "nder"
      ],
      [
        "ĠV",
        "oldemort"
      ],
      [
        "Ġwhe",
        "re"
      ],
      [
        "Ġha",
        "pp"
      ],
      [
        "Ġkn",
        "e"
      ],
      [
        "Ġd",
        "is"
      ],
      [
        "Ġt",
        "ell"
      ],
      [
        "Ġbe",
        "h"
      ],
      [
        "Ġw",
        "ay"
      ],
      [
        "Ġw",
        "ant"
      ],
      [
        "Ġp",
        "e"
      ],
      [
        "ag",
        "e"
      ],
      [
        "r",
        "ow"
      ],
      [
        "Ġa",
        "fter"
      ],
      [
        "ri",
        "ed"
      ],
      [
        "at",
        "her"
      ],
      [
        "iz",
        "ard"
      ],
      [
        "s",
        "ed"
      ],
      [
        "m",
        "ent"
      ],
      [
        "v",
        "es"
      ],
      [
        "ir",
        "ius"
      ],
      [
        "Ġbe",
        "c"
      ],
      [
        "Ġ",
        "ke"
      ],
      [
        "Ġm",
        "u"
      ],
      [
        "Ġsomet",
        "hing"
      ],
      [
        "t",
        "hing"
      ],
      [
        "Ġseem",
        "ed"
      ],
      [
        "Ġa",
        "pp"
      ],
      [
        "Ġl",
        "o"
      ],
      [
        "Ġhim",
        "self"
      ],
      [
        "Ġa",
        "way"
      ],
      [
        "Ġf",
        "ir"
      ],
      [
        "ĠS",
        "he"
      ],
      [
        "I",
        "t"
      ],
      [
        "Ġl",
        "et"
      ],
      [
        "ĠPot",
        "ter"
      ],
      [
        "t",
        "e"
      ],
      [
        "Ġl",
        "it"
      ],
      [
        "Ġbe",
        "t"
      ],
      [
        "Ġbeh",
        "ind"
      ],
      [
        "ĠA",
        "nd"
      ],
      [
        "aus",
        "e"
      ],
      [
        "Ġe",
        "ven"
      ],
      [
        "Ġas",
        "ked"
      ],
      [
        "Ġre",
        "m"
      ],
      [
        "e",
        "ct"
      ],
      [
        "Ġs",
        "pe"
      ],
      [
        "m",
        "b"
      ],
      [
        "ĠS",
        "irius"
      ],
      [
        "e",
        "ver"
      ],
      [
        "Ġto",
        "ld"
      ],
      [
        "Ġturn",
        "ed"
      ],
      [
        "H",
        "e"
      ],
      [
        "Ġb",
        "r"
      ],
      [
        "Ġne",
        "ver"
      ],
      [
        "at",
        "ed"
      ],
      [
        "Ġto",
        "ward"
      ],
      [
        "l",
        "t"
      ],
      [
        "k",
        "s"
      ],
      [
        "Ġl",
        "ast"
      ],
      [
        "Ġc",
        "ome"
      ],
      [
        "Ġa",
        "c"
      ],
      [
        "ac",
        "t"
      ],
      [
        "Ġpo",
        "in"
      ],
      [
        "ĠH",
        "og"
      ],
      [
        "ĠD",
        "e"
      ],
      [
        "ag",
        "ic"
      ],
      [
        "Ġp",
        "ro"
      ],
      [
        "om",
        "ent"
      ],
      [
        "Ġth",
        "ing"
      ],
      [
        "an",
        "ce"
      ],
      [
        "Ġmu",
        "ch"
      ],
      [
        "Ġm",
        "oment"
      ],
      [
        "Ġt",
        "ry"
      ],
      [
        "in",
        "e"
      ],
      [
        "ĠB",
        "ut"
      ],
      [
        "Ġy",
        "ear"
      ],
      [
        "o",
        "ll"
      ],
      [
        "ac",
        "h"
      ],
      [
        "oo",
        "l"
      ],
      [
        "Ġkne",
        "w"
      ],
      [
        "u",
        "ff"
      ],
      [
        "d",
        "d"
      ],
      [
        "Ġ",
        "You"
      ],
      [
        "re",
        "ss"
      ],
      [
        "er",
        "ing"
      ],
      [
        "op",
        "le"
      ],
      [
        "u",
        "e"
      ],
      [
        "Ġsh",
        "ould"
      ],
      [
        "or",
        "d"
      ],
      [
        "i",
        "ed"
      ],
      [
        "ch",
        "ing"
      ],
      [
        "Ġon",
        "ce"
      ],
      [
        "Ġlit",
        "tle"
      ],
      [
        "Ġfir",
        "st"
      ],
      [
        "W",
        "ell"
      ],
      [
        "Ġs",
        "il"
      ],
      [
        "art",
        "s"
      ],
      [
        "Ġse",
        "c"
      ],
      [
        "f",
        "ul"
      ],
      [
        "u",
        "gg"
      ],
      [
        "Ġhe",
        "ard"
      ],
      [
        "Ġle",
        "ft"
      ],
      [
        "Ġm",
        "ade"
      ],
      [
        "Ġtw",
        "o"
      ],
      [
        "W",
        "e"
      ],
      [
        "Ġh",
        "as"
      ],
      [
        "ĠThe",
        "re"
      ],
      [
        "od",
        "y"
      ],
      [
        "p",
        "ed"
      ],
      [
        "Ġp",
        "r"
      ],
      [
        "B",
        "ut"
      ],
      [
        "on",
        "t"
      ],
      [
        "ĠM",
        "in"
      ],
      [
        "Ġw",
        "a"
      ],
      [
        "Ġb",
        "ot"
      ],
      [
        "is",
        "h"
      ],
      [
        "as",
        "e"
      ],
      [
        "Ġfe",
        "lt"
      ],
      [
        "Ġg",
        "ood"
      ],
      [
        "w",
        "arts"
      ],
      [
        "ĠF",
        "red"
      ],
      [
        "ow",
        "ed"
      ],
      [
        "u",
        "ck"
      ],
      [
        "ĠMr",
        "s"
      ],
      [
        "Ġd",
        "es"
      ],
      [
        "Ġpe",
        "ople"
      ],
      [
        "l",
        "es"
      ],
      [
        "Ġcon",
        "t"
      ],
      [
        "N",
        "o"
      ],
      [
        "n",
        "t"
      ],
      [
        "b",
        "er"
      ],
      [
        "ĠHog",
        "warts"
      ],
      [
        "ro",
        "om"
      ],
      [
        "ad",
        "y"
      ],
      [
        "ĠN",
        "e"
      ],
      [
        "p",
        "le"
      ],
      [
        "Ġh",
        "o"
      ],
      [
        "Ġd",
        "ark"
      ],
      [
        "Ġp",
        "ull"
      ],
      [
        "Ġwe",
        "ll"
      ],
      [
        "Ġre",
        "ally"
      ],
      [
        "Ġit",
        "s"
      ],
      [
        "i",
        "es"
      ],
      [
        "Ġm",
        "ight"
      ],
      [
        "ro",
        "ss"
      ],
      [
        "l",
        "ess"
      ],
      [
        "Ġat",
        "t"
      ],
      [
        "Ġ",
        "'"
      ],
      [
        "ud",
        "d"
      ],
      [
        "Ġar",
        "m"
      ],
      [
        "Ġt",
        "al"
      ],
      [
        "Ġs",
        "n"
      ],
      [
        "ion",
        "s"
      ],
      [
        "or",
        "y"
      ],
      [
        "Ġw",
        "al"
      ],
      [
        "it",
        "ch"
      ],
      [
        "he",
        "n"
      ],
      [
        "ill",
        "e"
      ],
      [
        "Ġf",
        "lo"
      ],
      [
        "Ġw",
        "izard"
      ],
      [
        "o",
        "ck"
      ],
      [
        "Ġne",
        "ed"
      ],
      [
        "p",
        "er"
      ],
      [
        "ou",
        "gh"
      ],
      [
        "ri",
        "e"
      ],
      [
        "up",
        "in"
      ],
      [
        "or",
        "s"
      ],
      [
        "x",
        "t"
      ],
      [
        "Ġst",
        "r"
      ],
      [
        "Ġfe",
        "el"
      ],
      [
        "Ġfr",
        "ont"
      ],
      [
        "it",
        "y"
      ],
      [
        "inn",
        "y"
      ],
      [
        "H",
        "arry"
      ],
      [
        "Ġa",
        "m"
      ],
      [
        "Ġw",
        "ind"
      ],
      [
        "ĠM",
        "c"
      ],
      [
        "ĠL",
        "upin"
      ],
      [
        "Q",
        "u"
      ],
      [
        "Ġd",
        "r"
      ],
      [
        "Ġsu",
        "re"
      ],
      [
        "a",
        "h"
      ],
      [
        "ou",
        "se"
      ],
      [
        "or",
        "ge"
      ],
      [
        "Ġe",
        "ver"
      ],
      [
        "is",
        "e"
      ],
      [
        "Ġ",
        "ent"
      ],
      [
        "o",
        "se"
      ],
      [
        "Ġop",
        "en"
      ],
      [
        "e",
        "orge"
      ],
      [
        "O",
        "h"
      ],
      [
        "Ġm",
        "ust"
      ],
      [
        "v",
        "ille"
      ],
      [
        "ou",
        "d"
      ],
      [
        "Ġc",
        "he"
      ],
      [
        "A",
        "nd"
      ],
      [
        "Ġc",
        "r"
      ],
      [
        "ar",
        "m"
      ],
      [
        "ĠG",
        "eorge"
      ],
      [
        "ar",
        "ge"
      ],
      [
        "ĠC",
        "h"
      ],
      [
        "un",
        "g"
      ],
      [
        "p",
        "l"
      ],
      [
        "Ġme",
        "an"
      ],
      [
        "m",
        "e"
      ],
      [
        "Ġo",
        "ld"
      ],
      [
        "Ġc",
        "ame"
      ],
      [
        "he",
        "re"
      ],
      [
        "c",
        "ed"
      ],
      [
        "Ġfe",
        "et"
      ],
      [
        "c",
        "y"
      ],
      [
        "Ġbec",
        "ause"
      ],
      [
        "re",
        "am"
      ],
      [
        "Ġh",
        "ur"
      ],
      [
        "Ġp",
        "ut"
      ],
      [
        "ig",
        "n"
      ],
      [
        "Ġp",
        "ass"
      ],
      [
        "Ġbe",
        "l"
      ],
      [
        "ĠNe",
        "ville"
      ],
      [
        "Ġim",
        "p"
      ],
      [
        "G",
        "on"
      ],
      [
        "ag",
        "all"
      ],
      [
        "Gon",
        "agall"
      ],
      [
        "on",
        "s"
      ],
      [
        "en",
        "ce"
      ],
      [
        "b",
        "e"
      ],
      [
        "un",
        "n"
      ],
      [
        "ĠG",
        "inny"
      ],
      [
        "ĠMc",
        "Gonagall"
      ],
      [
        "Ġe",
        "nd"
      ],
      [
        "Ġo",
        "wn"
      ],
      [
        "re",
        "w"
      ],
      [
        "Ġf",
        "ind"
      ],
      [
        "Ġ",
        "Qu"
      ],
      [
        "e",
        "ah"
      ],
      [
        "Ġc",
        "le"
      ],
      [
        "an",
        "ted"
      ],
      [
        "Ġtoo",
        "k"
      ],
      [
        "Ġt",
        "er"
      ],
      [
        "our",
        "se"
      ],
      [
        "Ġb",
        "ed"
      ],
      [
        "Ġb",
        "it"
      ],
      [
        "Ġd",
        "ay"
      ],
      [
        "Ġany",
        "thing"
      ],
      [
        "Ġg",
        "reat"
      ],
      [
        "Ġsu",
        "pp"
      ],
      [
        "Ġfe",
        "w"
      ],
      [
        "Ġs",
        "ur"
      ],
      [
        "Ġtry",
        "ing"
      ],
      [
        "Ġh",
        "ard"
      ],
      [
        "Ġm",
        "ake"
      ],
      [
        "Ġhe",
        "l"
      ],
      [
        "Ġt",
        "able"
      ],
      [
        "Ġst",
        "and"
      ],
      [
        "at",
        "er"
      ],
      [
        "ĠI",
        "n"
      ],
      [
        "ch",
        "ool"
      ],
      [
        "is",
        "hed"
      ],
      [
        "Ġt",
        "ake"
      ],
      [
        "o",
        "st"
      ],
      [
        "is",
        "ed"
      ],
      [
        "ent",
        "s"
      ],
      [
        "ry",
        "ff"
      ],
      [
        "ryff",
        "ind"
      ],
      [
        "an",
        "k"
      ],
      [
        "Ġw",
        "r"
      ],
      [
        "Ġl",
        "ight"
      ],
      [
        "Ġg",
        "i"
      ],
      [
        "Ġan",
        "other"
      ],
      [
        "he",
        "s"
      ],
      [
        "Ġw",
        "ent"
      ],
      [
        "Ġsec",
        "ond"
      ],
      [
        "er",
        "n"
      ],
      [
        "if",
        "f"
      ],
      [
        "ĠG",
        "ryffind"
      ],
      [
        "rid",
        "ge"
      ],
      [
        "Ġhand",
        "s"
      ],
      [
        "Ġwor",
        "d"
      ],
      [
        "Ġn",
        "ight"
      ],
      [
        "Ġne",
        "xt"
      ],
      [
        "Ġc",
        "ur"
      ],
      [
        "Ġin",
        "side"
      ],
      [
        "w",
        "e"
      ],
      [
        "Ġke",
        "ep"
      ],
      [
        "ĠT",
        "h"
      ],
      [
        "o",
        "ot"
      ],
      [
        "o",
        "ve"
      ],
      [
        "ar",
        "ly"
      ],
      [
        "Ġs",
        "ide"
      ],
      [
        "Ġwh",
        "ile"
      ],
      [
        "Ġflo",
        "or"
      ],
      [
        "Ġs",
        "chool"
      ],
      [
        "ious",
        "ly"
      ],
      [
        "c",
        "le"
      ],
      [
        "i",
        "et"
      ],
      [
        "Ġb",
        "oy"
      ],
      [
        "Ġl",
        "arge"
      ],
      [
        "Ġe",
        "m"
      ],
      [
        "Ġs",
        "ound"
      ],
      [
        "Ġne",
        "w"
      ],
      [
        "e",
        "e"
      ],
      [
        "t",
        "ered"
      ],
      [
        "Ġr",
        "a"
      ],
      [
        "b",
        "ody"
      ],
      [
        "Ġf",
        "ound"
      ],
      [
        "Ġth",
        "ree"
      ],
      [
        "Ġup",
        "on"
      ],
      [
        "ull",
        "y"
      ],
      [
        "Ġc",
        "all"
      ],
      [
        "Ġwh",
        "is"
      ],
      [
        "Ġl",
        "au"
      ],
      [
        "Ġwind",
        "ow"
      ],
      [
        "iz",
        "ed"
      ],
      [
        "mb",
        "ridge"
      ],
      [
        "s",
        "h"
      ],
      [
        "ĠB",
        "l"
      ],
      [
        "Y",
        "es"
      ],
      [
        "g",
        "et"
      ],
      [
        "Ġbl",
        "ack"
      ],
      [
        "a",
        "z"
      ],
      [
        "a",
        "pp"
      ],
      [
        "Ġl",
        "oud"
      ],
      [
        "ac",
        "her"
      ],
      [
        "Ġe",
        "l"
      ],
      [
        "Ġs",
        "it"
      ],
      [
        "Ġs",
        "et"
      ],
      [
        "Ġha",
        "ir"
      ],
      [
        "Ġre",
        "t"
      ],
      [
        "ĠU",
        "mbridge"
      ],
      [
        "Ġp",
        "er"
      ],
      [
        "em",
        "ent"
      ],
      [
        "n",
        "e"
      ],
      [
        "Ġc",
        "ourse"
      ],
      [
        "Ġg",
        "ave"
      ],
      [
        "ist",
        "ry"
      ],
      [
        "ar",
        "y"
      ],
      [
        "Ġse",
        "en"
      ],
      [
        "i",
        "p"
      ],
      [
        "Ġ",
        "J"
      ],
      [
        "ĠDe",
        "ath"
      ],
      [
        "b",
        "l"
      ],
      [
        "i",
        "x"
      ],
      [
        "Ġnot",
        "hing"
      ],
      [
        "Ġg",
        "round"
      ],
      [
        "i",
        "ld"
      ],
      [
        "Ġhe",
        "ar"
      ],
      [
        "Ġst",
        "ood"
      ],
      [
        "t",
        "y"
      ],
      [
        "Ġhel",
        "p"
      ],
      [
        "a",
        "il"
      ],
      [
        "ĠS",
        "t"
      ],
      [
        "ĠMin",
        "istry"
      ],
      [
        "ĠGryffind",
        "or"
      ],
      [
        "udd",
        "en"
      ],
      [
        "h",
        "y"
      ],
      [
        "Ġf",
        "in"
      ],
      [
        "Ġj",
        "o"
      ],
      [
        "a",
        "w"
      ],
      [
        "at",
        "ing"
      ],
      [
        "Ġre",
        "al"
      ],
      [
        "Ġon",
        "to"
      ],
      [
        "Ġwh",
        "y"
      ],
      [
        "i",
        "gh"
      ],
      [
        "is",
        "s"
      ],
      [
        "Ġa",
        "ir"
      ],
      [
        "Ġha",
        "lf"
      ],
      [
        "air",
        "s"
      ],
      [
        "Ġpull",
        "ed"
      ],
      [
        "Ġs",
        "k"
      ],
      [
        "Ġs",
        "udden"
      ],
      [
        "ight",
        "ly"
      ],
      [
        "Ġb",
        "ook"
      ],
      [
        "Ġw",
        "all"
      ],
      [
        "ĠD",
        "o"
      ],
      [
        "ĠU",
        "n"
      ],
      [
        "Y",
        "eah"
      ],
      [
        "n",
        "ess"
      ],
      [
        "Ġl",
        "if"
      ],
      [
        "ow",
        "er"
      ],
      [
        "a",
        "v"
      ],
      [
        "Ġsh",
        "out"
      ],
      [
        "ood",
        "y"
      ],
      [
        "Ġw",
        "anted"
      ],
      [
        "Ġc",
        "ast"
      ],
      [
        "Ġm",
        "at"
      ],
      [
        "Ġ",
        "our"
      ],
      [
        "ac",
        "hed"
      ],
      [
        "Ġac",
        "ross"
      ],
      [
        "Ġs",
        "at"
      ],
      [
        "Ġbe",
        "g"
      ],
      [
        "bb",
        "y"
      ],
      [
        "an",
        "s"
      ],
      [
        "Ġf",
        "ire"
      ],
      [
        "Ġqu",
        "ick"
      ],
      [
        "Ġfe",
        "ll"
      ],
      [
        "ĠH",
        "is"
      ],
      [
        "Ġs",
        "qu"
      ],
      [
        "Ġwa",
        "it"
      ],
      [
        "Ġbe",
        "ing"
      ],
      [
        "Ġst",
        "ud"
      ],
      [
        "way",
        "s"
      ],
      [
        "Ġpl",
        "ace"
      ],
      [
        "Ġh",
        "ouse"
      ],
      [
        "Ġwas",
        "n"
      ],
      [
        "um",
        "p"
      ],
      [
        "un",
        "t"
      ],
      [
        "i",
        "ble"
      ],
      [
        "Ġe",
        "ach"
      ],
      [
        "n",
        "g"
      ],
      [
        "Ġf",
        "oll"
      ],
      [
        "ent",
        "ly"
      ],
      [
        "Ġmo",
        "st"
      ],
      [
        "ing",
        "s"
      ],
      [
        "ar",
        "s"
      ],
      [
        "Ġwith",
        "out"
      ],
      [
        "Ġbot",
        "h"
      ],
      [
        "ud",
        "ge"
      ],
      [
        "Ġc",
        "or"
      ],
      [
        "Ġd",
        "one"
      ],
      [
        "ĠM",
        "ad"
      ],
      [
        "Ġdo",
        "es"
      ],
      [
        "Ġqu",
        "iet"
      ],
      [
        "ar",
        "ted"
      ],
      [
        "ĠD",
        "ark"
      ],
      [
        "Ġhapp",
        "ened"
      ],
      [
        "Ġyear",
        "s"
      ],
      [
        "Ġal",
        "ong"
      ],
      [
        "Ġqu",
        "ite"
      ],
      [
        "Ġsm",
        "all"
      ],
      [
        "Ġcl",
        "ass"
      ],
      [
        "Ġm",
        "ind"
      ],
      [
        "en",
        "ing"
      ],
      [
        "is",
        "ter"
      ],
      [
        "o",
        "s"
      ],
      [
        "Ġcould",
        "n"
      ],
      [
        "Ġan",
        "g"
      ],
      [
        "T",
        "hat"
      ],
      [
        "f",
        "ully"
      ],
      [
        "r",
        "u"
      ],
      [
        "Ġagain",
        "st"
      ],
      [
        "Ġbet",
        "ter"
      ],
      [
        "out",
        "h"
      ],
      [
        "rie",
        "nd"
      ],
      [
        "Ġc",
        "are"
      ],
      [
        "Ġdo",
        "ing"
      ],
      [
        "c",
        "ted"
      ],
      [
        "i",
        "b"
      ],
      [
        "Ġm",
        "agic"
      ],
      [
        "t",
        "en"
      ],
      [
        "in",
        "s"
      ],
      [
        "ow",
        "ing"
      ],
      [
        "ern",
        "on"
      ],
      [
        "as",
        "ter"
      ],
      [
        "ĠP",
        "er"
      ],
      [
        "Ġun",
        "t"
      ],
      [
        "r",
        "ic"
      ],
      [
        "Ġp",
        "le"
      ],
      [
        "il",
        "ing"
      ],
      [
        "pe",
        "red"
      ],
      [
        "e",
        "y"
      ],
      [
        "l",
        "u"
      ],
      [
        "y",
        "ing"
      ],
      [
        "ĠV",
        "ernon"
      ],
      [
        "Ġb",
        "reat"
      ],
      [
        "Ġel",
        "se"
      ],
      [
        "Ġen",
        "ough"
      ],
      [
        "l",
        "i"
      ],
      [
        "ĠThe",
        "n"
      ],
      [
        "ĠM",
        "ugg"
      ],
      [
        "b",
        "es"
      ],
      [
        "Ġk",
        "ill"
      ],
      [
        "Ġst",
        "e"
      ],
      [
        "T",
        "h"
      ],
      [
        "ĠM",
        "agic"
      ],
      [
        "ĠM",
        "oody"
      ],
      [
        "Ġh",
        "old"
      ],
      [
        "Ġey",
        "e"
      ],
      [
        "in",
        "ed"
      ],
      [
        "Ġf",
        "am"
      ],
      [
        "Ġm",
        "outh"
      ],
      [
        "re",
        "ady"
      ],
      [
        "Ġex",
        "pe"
      ],
      [
        "p",
        "r"
      ],
      [
        "e",
        "h"
      ],
      [
        "Ġm",
        "ut"
      ],
      [
        "t",
        "ain"
      ],
      [
        "ur",
        "s"
      ],
      [
        "am",
        "p"
      ],
      [
        "c",
        "l"
      ],
      [
        "au",
        "ght"
      ],
      [
        "Ġm",
        "in"
      ],
      [
        "u",
        "nd"
      ],
      [
        "re",
        "t"
      ],
      [
        "Ġf",
        "ore"
      ],
      [
        "Ġl",
        "ess"
      ],
      [
        "Ġb",
        "o"
      ],
      [
        "Ġre",
        "s"
      ],
      [
        "Ġal",
        "ready"
      ],
      [
        "ly",
        "ther"
      ],
      [
        "Ġy",
        "ell"
      ],
      [
        "a",
        "wn"
      ],
      [
        "i",
        "a"
      ],
      [
        "S",
        "o"
      ],
      [
        "Ġwal",
        "ked"
      ],
      [
        "Ġf",
        "riend"
      ],
      [
        "Ġro",
        "bes"
      ],
      [
        "ar",
        "n"
      ],
      [
        "Ġst",
        "aring"
      ],
      [
        "E",
        "R"
      ],
      [
        "re",
        "ak"
      ],
      [
        "Ġrem",
        "em"
      ],
      [
        "Ġp",
        "art"
      ],
      [
        "W",
        "ho"
      ],
      [
        "in",
        "ce"
      ],
      [
        "Ġbel",
        "ie"
      ],
      [
        "Ġre",
        "ad"
      ],
      [
        "ĠP",
        "et"
      ],
      [
        "ĠUn",
        "cle"
      ],
      [
        "Ġfor",
        "ward"
      ],
      [
        "idd",
        "le"
      ],
      [
        "e",
        "ared"
      ],
      [
        "Ġd",
        "iff"
      ],
      [
        "ĠA",
        "s"
      ],
      [
        "ĠF",
        "udge"
      ],
      [
        "f",
        "orm"
      ],
      [
        "Ġgo",
        "ld"
      ],
      [
        "Ġp",
        "ast"
      ],
      [
        "ĠS",
        "lyther"
      ],
      [
        "ang",
        "er"
      ],
      [
        "Ġt",
        "re"
      ],
      [
        "pp",
        "ing"
      ],
      [
        "Ġre",
        "st"
      ],
      [
        "Ġr",
        "ather"
      ],
      [
        "ab",
        "ly"
      ],
      [
        "we",
        "en"
      ],
      [
        "Ġto",
        "p"
      ],
      [
        "Ġg",
        "one"
      ],
      [
        "Ġw",
        "on"
      ],
      [
        "en",
        "se"
      ],
      [
        "Ġwhis",
        "pered"
      ],
      [
        "Ġth",
        "ose"
      ],
      [
        "Ġin",
        "st"
      ],
      [
        "Ġret",
        "urn"
      ],
      [
        "Ġthe",
        "se"
      ],
      [
        "Ġo",
        "b"
      ],
      [
        "ain",
        "ed"
      ],
      [
        "Ġbet",
        "ween"
      ],
      [
        "Ġs",
        "na"
      ],
      [
        "Ġsudden",
        "ly"
      ],
      [
        "g",
        "ed"
      ],
      [
        "Ġsc",
        "ar"
      ],
      [
        "Ġstand",
        "ing"
      ],
      [
        "ud",
        "ley"
      ],
      [
        "ĠA",
        "r"
      ],
      [
        "Ġbeg",
        "an"
      ],
      [
        "Ġunt",
        "il"
      ],
      [
        "m",
        "ost"
      ],
      [
        "en",
        "s"
      ],
      [
        "dd",
        "ed"
      ],
      [
        "Ġc",
        "ar"
      ],
      [
        "Ġg",
        "ive"
      ],
      [
        "Ġf",
        "ull"
      ],
      [
        "Ġop",
        "ened"
      ],
      [
        "an",
        "ge"
      ],
      [
        "Ġre",
        "c"
      ],
      [
        "Ġman",
        "y"
      ],
      [
        "w",
        "l"
      ],
      [
        "Ġy",
        "et"
      ],
      [
        "Ġt",
        "ried"
      ],
      [
        "Ġb",
        "ro"
      ],
      [
        "Ġl",
        "ist"
      ],
      [
        "Ġsl",
        "ightly"
      ],
      [
        "Ġsit",
        "ting"
      ],
      [
        "Ġc",
        "old"
      ],
      [
        "it",
        "her"
      ],
      [
        "Ġgl",
        "ass"
      ],
      [
        "idd",
        "itch"
      ],
      [
        "Ġst",
        "o"
      ],
      [
        "Ġquick",
        "ly"
      ],
      [
        "he",
        "ad"
      ],
      [
        "Ġw",
        "ond"
      ],
      [
        "Ġc",
        "ou"
      ],
      [
        "o",
        "ke"
      ],
      [
        "Ġd",
        "ro"
      ],
      [
        "Ġthing",
        "s"
      ],
      [
        "ĠD",
        "udley"
      ],
      [
        "c",
        "hes"
      ],
      [
        "Ġh",
        "or"
      ],
      [
        "Ġsa",
        "me"
      ],
      [
        "Ġtal",
        "king"
      ],
      [
        "Ġd",
        "ist"
      ],
      [
        "Ġra",
        "ised"
      ],
      [
        "Ġmin",
        "ut"
      ],
      [
        "gh",
        "orn"
      ],
      [
        "Ġst",
        "art"
      ],
      [
        "ĠG",
        "r"
      ],
      [
        "Ġoff",
        "ice"
      ],
      [
        "Ġclo",
        "se"
      ],
      [
        "p",
        "h"
      ],
      [
        "ĠS",
        "lu"
      ],
      [
        "Ġcor",
        "rid"
      ],
      [
        "ul",
        "t"
      ],
      [
        "Ġst",
        "arted"
      ],
      [
        "ir",
        "l"
      ],
      [
        "ĠQu",
        "idditch"
      ],
      [
        "Ġcast",
        "le"
      ],
      [
        "Ġg",
        "re"
      ],
      [
        "Ġre",
        "ached"
      ],
      [
        "am",
        "es"
      ],
      [
        "Ġb",
        "ad"
      ],
      [
        "ĠC",
        "lo"
      ],
      [
        "d",
        "ay"
      ],
      [
        "ent",
        "ion"
      ],
      [
        "ĠH",
        "all"
      ],
      [
        "ĠSlu",
        "ghorn"
      ],
      [
        "Ġde",
        "ep"
      ],
      [
        "o",
        "sed"
      ],
      [
        "Ġwould",
        "n"
      ],
      [
        "Ġcom",
        "m"
      ],
      [
        "ĠA",
        "n"
      ],
      [
        "ck",
        "et"
      ],
      [
        "ĠL",
        "ord"
      ],
      [
        "H",
        "ow"
      ],
      [
        "y",
        "ou"
      ],
      [
        "Ġa",
        "d"
      ],
      [
        "Ġunder",
        "st"
      ],
      [
        "ĠBl",
        "ack"
      ],
      [
        "get",
        "her"
      ],
      [
        "Ġa",
        "ble"
      ],
      [
        "ĠClo",
        "ak"
      ],
      [
        "ig",
        "g"
      ],
      [
        "Ġsl",
        "ow"
      ],
      [
        "Ġp",
        "ain"
      ],
      [
        "ak",
        "en"
      ],
      [
        "Ġex",
        "p"
      ],
      [
        "Ġde",
        "ad"
      ],
      [
        "ter",
        "ing"
      ],
      [
        "ĠDo",
        "bby"
      ],
      [
        "Ġal",
        "ways"
      ],
      [
        "Ġshout",
        "ed"
      ],
      [
        "Ġal",
        "most"
      ],
      [
        "ĠPer",
        "cy"
      ],
      [
        "Ġc",
        "o"
      ],
      [
        "Ġst",
        "ra"
      ],
      [
        "l",
        "ves"
      ],
      [
        "Ġh",
        "igh"
      ],
      [
        "Ġn",
        "ame"
      ],
      [
        "Ġ",
        "ide"
      ],
      [
        "at",
        "ers"
      ],
      [
        "Ġany",
        "one"
      ],
      [
        "Ġcom",
        "ing"
      ],
      [
        "i",
        "v"
      ],
      [
        "Ġto",
        "gether"
      ],
      [
        "Ġl",
        "ater"
      ],
      [
        "er",
        "v"
      ],
      [
        "Ġf",
        "ather"
      ],
      [
        "m",
        "ed"
      ],
      [
        "r",
        "ac"
      ],
      [
        "Ġf",
        "ing"
      ],
      [
        "Ġcall",
        "ed"
      ],
      [
        "u",
        "red"
      ],
      [
        "ate",
        "ly"
      ],
      [
        "d",
        "er"
      ],
      [
        "u",
        "al"
      ],
      [
        "Ġin",
        "d"
      ],
      [
        "Ġus",
        "e"
      ],
      [
        "Ġm",
        "em"
      ],
      [
        "v",
        "is"
      ],
      [
        "Ġb",
        "es"
      ],
      [
        "Ġg",
        "irl"
      ],
      [
        "ĠS",
        "e"
      ],
      [
        "Ġwor",
        "k"
      ],
      [
        "Ġdr",
        "ag"
      ],
      [
        "s",
        "w"
      ],
      [
        "Ġst",
        "ared"
      ],
      [
        "Ġh",
        "our"
      ],
      [
        "Ġf",
        "our"
      ],
      [
        "Ġsc",
        "ream"
      ],
      [
        "e",
        "re"
      ],
      [
        "Ġpo",
        "ss"
      ],
      [
        "Ġs",
        "le"
      ],
      [
        "Ġb",
        "room"
      ],
      [
        "Ġp",
        "ers"
      ],
      [
        "The",
        "y"
      ],
      [
        "Ġde",
        "c"
      ],
      [
        "Ġhow",
        "ever"
      ],
      [
        "Ġf",
        "ar"
      ],
      [
        "Ġf",
        "oot"
      ],
      [
        "ĠW",
        "hat"
      ],
      [
        "Ġcont",
        "in"
      ],
      [
        "r",
        "on"
      ],
      [
        "Ġc",
        "row"
      ],
      [
        "Ġfeel",
        "ing"
      ],
      [
        "c",
        "i"
      ],
      [
        "E",
        "N"
      ],
      [
        "c",
        "us"
      ],
      [
        "Ġm",
        "ar"
      ],
      [
        "ac",
        "ed"
      ],
      [
        "Ġs",
        "ight"
      ],
      [
        "ou",
        "ght"
      ],
      [
        "Ġo",
        "wl"
      ],
      [
        "Ġg",
        "u"
      ],
      [
        "un",
        "k"
      ],
      [
        "Ġp",
        "ar"
      ],
      [
        "Ġy",
        "eh"
      ],
      [
        "Ġcrow",
        "d"
      ],
      [
        "Ġquiet",
        "ly"
      ],
      [
        "it",
        "ed"
      ],
      [
        "ra",
        "w"
      ],
      [
        "Ġwat",
        "ching"
      ],
      [
        "Ġwho",
        "le"
      ],
      [
        "ra",
        "bb"
      ],
      [
        "Ġstud",
        "ents"
      ],
      [
        "Ġs",
        "ign"
      ],
      [
        "Ġv",
        "is"
      ],
      [
        "Ġle",
        "g"
      ],
      [
        "er",
        "y"
      ],
      [
        "Ġl",
        "ot"
      ],
      [
        "Ġbes",
        "ide"
      ],
      [
        "Ġ",
        "Y"
      ],
      [
        "it",
        "h"
      ],
      [
        "Ġha",
        "ll"
      ],
      [
        "ĠI",
        "f"
      ],
      [
        "ep",
        "s"
      ],
      [
        "ap",
        "s"
      ],
      [
        "or",
        "ry"
      ],
      [
        "Ġd",
        "et"
      ],
      [
        "ir",
        "d"
      ],
      [
        "The",
        "re"
      ],
      [
        "Ġem",
        "pt"
      ],
      [
        "u",
        "ed"
      ],
      [
        "Ġm",
        "other"
      ],
      [
        "N",
        "ot"
      ],
      [
        "um",
        "m"
      ],
      [
        "ĠE",
        "aters"
      ],
      [
        "ure",
        "s"
      ],
      [
        "ic",
        "t"
      ],
      [
        "u",
        "ally"
      ],
      [
        "Ġf",
        "ur"
      ],
      [
        "Ġout",
        "side"
      ],
      [
        "Ġstra",
        "ight"
      ],
      [
        "Ġa",
        "w"
      ],
      [
        "un",
        "a"
      ],
      [
        "Ġlet",
        "ter"
      ],
      [
        "re",
        "st"
      ],
      [
        "ĠW",
        "hen"
      ],
      [
        "i",
        "led"
      ],
      [
        "Ġhe",
        "art"
      ],
      [
        "Ġl",
        "ow"
      ],
      [
        "Ġas",
        "k"
      ],
      [
        "Ġre",
        "d"
      ],
      [
        "Ġevery",
        "thing"
      ],
      [
        "Ġst",
        "op"
      ],
      [
        "Ġc",
        "orn"
      ],
      [
        "Ġwe",
        "e"
      ],
      [
        "Ġmo",
        "ve"
      ],
      [
        "Ġevery",
        "one"
      ],
      [
        "Ġc",
        "aught"
      ],
      [
        "im",
        "es"
      ],
      [
        "Ġan",
        "sw"
      ],
      [
        "Ġc",
        "at"
      ],
      [
        "en",
        "e"
      ],
      [
        "ic",
        "ked"
      ],
      [
        "Ġb",
        "est"
      ],
      [
        "Ġd",
        "ement"
      ],
      [
        "Ġis",
        "n"
      ],
      [
        "Ġke",
        "pt"
      ],
      [
        "Ġpass",
        "ed"
      ],
      [
        "Ġlif",
        "e"
      ],
      [
        "ĠSlyther",
        "in"
      ],
      [
        "rou",
        "ch"
      ],
      [
        "Ġide",
        "a"
      ],
      [
        "p",
        "ly"
      ],
      [
        "Ġs",
        "ir"
      ],
      [
        "Ġsupp",
        "osed"
      ],
      [
        "Ġbelie",
        "ve"
      ],
      [
        "Ġslow",
        "ly"
      ],
      [
        "Ġwhe",
        "ther"
      ],
      [
        "Ġword",
        "s"
      ],
      [
        "Ġsto",
        "pped"
      ],
      [
        "Ġde",
        "f"
      ],
      [
        "ĠS",
        "c"
      ],
      [
        "Ġb",
        "ur"
      ],
      [
        "Ġsay",
        "ing"
      ],
      [
        "Ġmut",
        "tered"
      ],
      [
        "Ġ",
        "ri"
      ],
      [
        "Ġa",
        "ct"
      ],
      [
        "Ġho",
        "pe"
      ],
      [
        "Ġh",
        "it"
      ],
      [
        "Ġp",
        "ot"
      ],
      [
        "ack",
        "ed"
      ],
      [
        "w",
        "here"
      ],
      [
        "Ġget",
        "ting"
      ],
      [
        "Ġ",
        "("
      ],
      [
        "ĠL",
        "una"
      ],
      [
        "Ġbreat",
        "h"
      ],
      [
        "ĠMugg",
        "le"
      ],
      [
        "c",
        "c"
      ],
      [
        "s",
        "o"
      ],
      [
        "Ġha",
        "ven"
      ],
      [
        "ĠA",
        "l"
      ],
      [
        "Ġs",
        "ince"
      ],
      [
        "Ġh",
        "ome"
      ],
      [
        "ri",
        "f"
      ],
      [
        "c",
        "ing"
      ],
      [
        "Ġsh",
        "ort"
      ],
      [
        "iz",
        "e"
      ],
      [
        "Ġsome",
        "one"
      ],
      [
        "Ġwizard",
        "s"
      ],
      [
        "l",
        "ight"
      ],
      [
        "r",
        "um"
      ],
      [
        "Ġt",
        "aken"
      ],
      [
        "f",
        "ort"
      ],
      [
        "j",
        "ect"
      ],
      [
        "ed",
        "ric"
      ],
      [
        "Ġlau",
        "gh"
      ],
      [
        "Ġb",
        "reak"
      ],
      [
        "Ġst",
        "ay"
      ],
      [
        "ag",
        "ed"
      ],
      [
        "ĠC",
        "rouch"
      ],
      [
        "Ġpl",
        "ay"
      ],
      [
        "Ġs",
        "ort"
      ],
      [
        "Ġmo",
        "ved"
      ],
      [
        "ĠMad",
        "am"
      ],
      [
        "D",
        "on"
      ],
      [
        "ri",
        "ble"
      ],
      [
        "Ġhold",
        "ing"
      ],
      [
        "re",
        "acher"
      ],
      [
        "Ġf",
        "all"
      ],
      [
        "g",
        "ing"
      ],
      [
        "Ġst",
        "one"
      ],
      [
        "ĠA",
        "unt"
      ],
      [
        "ĠF",
        "l"
      ],
      [
        "Ġle",
        "a"
      ],
      [
        "Ġex",
        "t"
      ],
      [
        "orn",
        "ing"
      ],
      [
        "Ġy",
        "es"
      ],
      [
        "Ġle",
        "ave"
      ],
      [
        "urs",
        "ley"
      ],
      [
        "p",
        "he"
      ],
      [
        "re",
        "l"
      ],
      [
        "at",
        "i"
      ],
      [
        "ĠD",
        "ursley"
      ],
      [
        "Ġgre",
        "en"
      ],
      [
        "Ġunderst",
        "and"
      ],
      [
        "Ġd",
        "i"
      ],
      [
        "Ġno",
        "se"
      ],
      [
        "Ġcom",
        "p"
      ],
      [
        "Ġdis",
        "app"
      ],
      [
        "Ġcorrid",
        "or"
      ],
      [
        "Ġempt",
        "y"
      ],
      [
        "n",
        "ow"
      ],
      [
        "Ġqu",
        "est"
      ],
      [
        "Ġsil",
        "ence"
      ],
      [
        "i",
        "er"
      ],
      [
        "ĠH",
        "ow"
      ],
      [
        "ce",
        "pt"
      ],
      [
        "il",
        "ity"
      ],
      [
        "Ġal",
        "one"
      ],
      [
        "Ġloud",
        "ly"
      ],
      [
        "I",
        "f"
      ],
      [
        "m",
        "an"
      ],
      [
        "Ġt",
        "aking"
      ],
      [
        "Ġb",
        "us"
      ],
      [
        "Ġhad",
        "n"
      ],
      [
        "Ġwe",
        "aring"
      ],
      [
        "Ġm",
        "aking"
      ],
      [
        "Ġex",
        "am"
      ],
      [
        "Ġapp",
        "eared"
      ],
      [
        "Ġtal",
        "k"
      ],
      [
        "Ġminut",
        "es"
      ],
      [
        "ĠA",
        "ll"
      ],
      [
        "ĠC",
        "edric"
      ],
      [
        "id",
        "ed"
      ],
      [
        "Ġte",
        "acher"
      ],
      [
        "H",
        "A"
      ],
      [
        "id",
        "ing"
      ],
      [
        "Ġpoin",
        "t"
      ],
      [
        "Ġshould",
        "er"
      ],
      [
        "ow",
        "s"
      ],
      [
        "Ġpoin",
        "ted"
      ],
      [
        "te",
        "nd"
      ],
      [
        "h",
        "aps"
      ],
      [
        "Ġsur",
        "pr"
      ],
      [
        "Ġh",
        "at"
      ],
      [
        "us",
        "hed"
      ],
      [
        "ra",
        "ve"
      ],
      [
        "Ġar",
        "ri"
      ],
      [
        "Ġb",
        "ag"
      ],
      [
        "Ġspe",
        "ll"
      ],
      [
        "er",
        "tain"
      ],
      [
        "Ġm",
        "orning"
      ],
      [
        "an",
        "ks"
      ],
      [
        "S",
        "he"
      ],
      [
        "a",
        "le"
      ],
      [
        "Ġre",
        "l"
      ],
      [
        "un",
        "ia"
      ],
      [
        "Ġfoll",
        "owed"
      ],
      [
        "k",
        "en"
      ],
      [
        "Ġarm",
        "s"
      ],
      [
        "in",
        "y"
      ],
      [
        "Ġd",
        "ire"
      ],
      [
        "ous",
        "ly"
      ],
      [
        "Ġwat",
        "ched"
      ],
      [
        "Ġsil",
        "ver"
      ],
      [
        "s",
        "p"
      ],
      [
        "Ġst",
        "uff"
      ],
      [
        "ĠF",
        "il"
      ],
      [
        "Ġremem",
        "ber"
      ],
      [
        "W",
        "hy"
      ],
      [
        "f",
        "ect"
      ],
      [
        "re",
        "ad"
      ],
      [
        "ĠA",
        "t"
      ],
      [
        "ĠF",
        "or"
      ],
      [
        "Ġme",
        "et"
      ],
      [
        "Ġpoin",
        "ting"
      ],
      [
        "ĠPet",
        "unia"
      ],
      [
        "an",
        "ced"
      ],
      [
        "ic",
        "ed"
      ],
      [
        "Ġmat",
        "ter"
      ],
      [
        "Ġb",
        "u"
      ],
      [
        "ĠR",
        "iddle"
      ],
      [
        "k",
        "ay"
      ],
      [
        "r",
        "or"
      ],
      [
        "Ġb",
        "right"
      ],
      [
        "Ġc",
        "e"
      ],
      [
        "Ġp",
        "ower"
      ],
      [
        "ĠB",
        "ill"
      ],
      [
        "ress",
        "ion"
      ],
      [
        "Ġf",
        "le"
      ],
      [
        "Ġse",
        "ver"
      ],
      [
        "Ġother",
        "s"
      ],
      [
        "Ġac",
        "c"
      ],
      [
        "Ġf",
        "ly"
      ],
      [
        "Ġch",
        "air"
      ],
      [
        "Ġte",
        "am"
      ],
      [
        "act",
        "ly"
      ],
      [
        "Ġdes",
        "k"
      ],
      [
        "H",
        "E"
      ],
      [
        "b",
        "o"
      ],
      [
        "Ġm",
        "on"
      ],
      [
        "Ġin",
        "ter"
      ],
      [
        "Ġk",
        "ind"
      ],
      [
        "Ġcom",
        "ple"
      ],
      [
        "Ġcorn",
        "er"
      ],
      [
        "Ġs",
        "er"
      ],
      [
        "Ġex",
        "c"
      ],
      [
        "Ġsp",
        "ot"
      ],
      [
        "Ġwat",
        "er"
      ],
      [
        "Ġclo",
        "sed"
      ],
      [
        "Ġcomm",
        "on"
      ],
      [
        "Ġwh",
        "ite"
      ],
      [
        "Ġthink",
        "ing"
      ],
      [
        "Ġsever",
        "al"
      ],
      [
        "ll",
        "ed"
      ],
      [
        "Ġhur",
        "ried"
      ],
      [
        "ĠB",
        "e"
      ],
      [
        "Ġent",
        "r"
      ],
      [
        "ur",
        "ing"
      ],
      [
        "Ġf",
        "ast"
      ],
      [
        "ant",
        "ly"
      ],
      [
        "ĠO",
        "n"
      ],
      [
        "ĠTh",
        "is"
      ],
      [
        "Ġre",
        "f"
      ],
      [
        "se",
        "lves"
      ],
      [
        "oy",
        "le"
      ],
      [
        "Ġsu",
        "ch"
      ],
      [
        "ĠFil",
        "ch"
      ],
      [
        "i",
        "red"
      ],
      [
        "as",
        "hed"
      ],
      [
        "Ġha",
        "ving"
      ],
      [
        "im",
        "b"
      ],
      [
        "Ġk",
        "it"
      ],
      [
        "ĠMin",
        "ister"
      ],
      [
        "Ġm",
        "is"
      ],
      [
        "Ġr",
        "u"
      ],
      [
        "s",
        "it"
      ],
      [
        "ac",
        "es"
      ],
      [
        "Ġb",
        "ody"
      ],
      [
        "Ġdoes",
        "n"
      ],
      [
        "Ġpers",
        "on"
      ],
      [
        "Ġm",
        "et"
      ],
      [
        "Ġsh",
        "aking"
      ],
      [
        "lo",
        "ck"
      ],
      [
        "Ġse",
        "at"
      ],
      [
        "Ġfam",
        "ily"
      ],
      [
        "as",
        "ed"
      ],
      [
        "or",
        "c"
      ],
      [
        "Ġl",
        "ay"
      ],
      [
        "ver",
        "s"
      ],
      [
        "T",
        "ER"
      ],
      [
        "Ġs",
        "ent"
      ],
      [
        "ĠK",
        "reacher"
      ],
      [
        "Ġspe",
        "ak"
      ],
      [
        "Ġatt",
        "em"
      ],
      [
        "Ġgi",
        "ven"
      ],
      [
        "li",
        "ke"
      ],
      [
        "t",
        "he"
      ],
      [
        "Ġt",
        "en"
      ],
      [
        "Ġth",
        "ick"
      ],
      [
        "Ġin",
        "s"
      ],
      [
        "ra",
        "it"
      ],
      [
        "unn",
        "ing"
      ],
      [
        "ib",
        "ility"
      ],
      [
        "Ġyell",
        "ed"
      ],
      [
        "Ġ",
        "?\""
      ],
      [
        "Ġd",
        "anger"
      ],
      [
        "Ġus",
        "ual"
      ],
      [
        "n",
        "ts"
      ],
      [
        "Ġs",
        "orry"
      ],
      [
        "re",
        "y"
      ],
      [
        "Ġhe",
        "av"
      ],
      [
        "Ġg",
        "az"
      ],
      [
        "Ġne",
        "ar"
      ],
      [
        "Ġus",
        "ed"
      ],
      [
        "Ġdire",
        "ct"
      ],
      [
        "v",
        "ent"
      ],
      [
        "ch",
        "ment"
      ],
      [
        "Ġcon",
        "f"
      ],
      [
        "a",
        "ven"
      ],
      [
        "Ġhe",
        "ld"
      ],
      [
        "Ġt",
        "rou"
      ],
      [
        "Ġm",
        "ist"
      ],
      [
        "ore",
        "d"
      ],
      [
        "ĠC",
        "ho"
      ],
      [
        "Ġpo",
        "cket"
      ],
      [
        "Ġbl",
        "ood"
      ],
      [
        "Ġbook",
        "s"
      ],
      [
        "Ġpar",
        "chment"
      ],
      [
        "c",
        "hen"
      ],
      [
        "es",
        "c"
      ],
      [
        "idd",
        "en"
      ],
      [
        "Ġf",
        "ight"
      ],
      [
        "Ġm",
        "ur"
      ],
      [
        "Ġne",
        "ck"
      ],
      [
        "Ġsu",
        "b"
      ],
      [
        "Ġwr",
        "ong"
      ],
      [
        "O",
        "U"
      ],
      [
        "as",
        "h"
      ],
      [
        "ry",
        "ing"
      ],
      [
        "au",
        "ld"
      ],
      [
        "Ġentr",
        "ance"
      ],
      [
        "i",
        "pped"
      ],
      [
        "p",
        "s"
      ],
      [
        "Ġm",
        "ay"
      ],
      [
        "ĠF",
        "le"
      ],
      [
        "Ġv",
        "an"
      ],
      [
        "Ġun",
        "c"
      ],
      [
        "Ġdement",
        "ors"
      ],
      [
        "Ġkit",
        "chen"
      ],
      [
        "b",
        "ut"
      ],
      [
        "e",
        "ad"
      ],
      [
        "h",
        "art"
      ],
      [
        "Ġp",
        "ort"
      ],
      [
        "ĠM",
        "y"
      ],
      [
        "Ġex",
        "pl"
      ],
      [
        "Ġsw",
        "e"
      ],
      [
        "Ġpr",
        "ot"
      ],
      [
        "n",
        "o"
      ],
      [
        "z",
        "e"
      ],
      [
        "Ġ",
        "ed"
      ],
      [
        "or",
        "k"
      ],
      [
        "ic",
        "ul"
      ],
      [
        "Ġwat",
        "ch"
      ],
      [
        "awn",
        "ey"
      ],
      [
        "rel",
        "awney"
      ],
      [
        "Ġp",
        "at"
      ],
      [
        "ĠS",
        "n"
      ],
      [
        "ĠB",
        "ag"
      ],
      [
        "ĠL",
        "ock"
      ],
      [
        "Ġbur",
        "st"
      ],
      [
        "Ġa",
        "dded"
      ],
      [
        "Ġtell",
        "ing"
      ],
      [
        "Ġs",
        "im"
      ],
      [
        "ĠT",
        "relawney"
      ],
      [
        "Ġlo",
        "st"
      ],
      [
        "Ġcontin",
        "ued"
      ],
      [
        "Ġf",
        "act"
      ],
      [
        "Ġo",
        "dd"
      ],
      [
        "ĠB",
        "ell"
      ],
      [
        "Ġmo",
        "ving"
      ],
      [
        "te",
        "rest"
      ],
      [
        "Ġfing",
        "ers"
      ],
      [
        "s",
        "ing"
      ],
      [
        "ac",
        "ing"
      ],
      [
        "Ġsa",
        "f"
      ],
      [
        "Ġsh",
        "ut"
      ],
      [
        "ĠLock",
        "hart"
      ],
      [
        "a",
        "bb"
      ],
      [
        "c",
        "ase"
      ],
      [
        "t",
        "ail"
      ],
      [
        "Ġe",
        "ither"
      ],
      [
        "ook",
        "ing"
      ],
      [
        "ĠHe",
        "ad"
      ],
      [
        "K",
        "now"
      ],
      [
        "Ġre",
        "p"
      ],
      [
        "on",
        "ks"
      ],
      [
        "Ġf",
        "ree"
      ],
      [
        "Ġd",
        "ou"
      ],
      [
        "Ġst",
        "re"
      ],
      [
        "am",
        "ing"
      ],
      [
        "Ġsm",
        "ile"
      ],
      [
        "und",
        "red"
      ],
      [
        "Ġansw",
        "er"
      ],
      [
        "Ġcomple",
        "te"
      ],
      [
        "in",
        "ing"
      ],
      [
        "Ġn",
        "umb"
      ],
      [
        "Ġfor",
        "g"
      ],
      [
        "Ġd",
        "ied"
      ],
      [
        "ĠN",
        "o"
      ],
      [
        "ove",
        "red"
      ],
      [
        "Ġexpe",
        "ct"
      ],
      [
        "Ġ\"",
        "'"
      ],
      [
        "Ġp",
        "are"
      ],
      [
        "ĠK",
        "rum"
      ],
      [
        "y",
        "e"
      ],
      [
        "D",
        "o"
      ],
      [
        "Ġr",
        "an"
      ],
      [
        "Ġex",
        "actly"
      ],
      [
        "Ġdiff",
        "ere"
      ],
      [
        "rac",
        "o"
      ],
      [
        "Ġt",
        "ear"
      ],
      [
        "Ġin",
        "terest"
      ],
      [
        "and",
        "ed"
      ],
      [
        "Ġde",
        "ar"
      ],
      [
        "I",
        "N"
      ],
      [
        "b",
        "r"
      ],
      [
        "t",
        "om"
      ],
      [
        "Ġd",
        "ream"
      ],
      [
        "Ġin",
        "c"
      ],
      [
        "ri",
        "ve"
      ],
      [
        "Ġthem",
        "selves"
      ],
      [
        "Ġf",
        "ive"
      ],
      [
        "ĠG",
        "oyle"
      ],
      [
        "Ġso",
        "on"
      ],
      [
        "ou",
        "n"
      ],
      [
        "ĠO",
        "r"
      ],
      [
        "Ġday",
        "s"
      ],
      [
        "Ġt",
        "iny"
      ],
      [
        "in",
        "t"
      ],
      [
        "Ġb",
        "ene"
      ],
      [
        "ĠG",
        "reat"
      ],
      [
        "rabb",
        "e"
      ],
      [
        "ĠFle",
        "ur"
      ],
      [
        "Ġh",
        "undred"
      ],
      [
        "Ġyou",
        "ng"
      ],
      [
        "ĠF",
        "ire"
      ],
      [
        "ĠT",
        "onks"
      ],
      [
        "Ġreturn",
        "ed"
      ],
      [
        "Ġport",
        "rait"
      ],
      [
        "p",
        "ing"
      ],
      [
        "Ġst",
        "air"
      ],
      [
        "ic",
        "ally"
      ],
      [
        "Ġsh",
        "ook"
      ],
      [
        "Ġde",
        "ath"
      ],
      [
        "Ġwait",
        "ing"
      ],
      [
        "ru",
        "x"
      ],
      [
        "orc",
        "rux"
      ],
      [
        "ĠH",
        "orcrux"
      ],
      [
        "ĠS",
        "o"
      ],
      [
        "Ġne",
        "arly"
      ],
      [
        "Ġkn",
        "ock"
      ],
      [
        "Ġsp",
        "oke"
      ],
      [
        "Ġpl",
        "an"
      ],
      [
        "ang",
        "ed"
      ],
      [
        "Ġsna",
        "ke"
      ],
      [
        "Ġsle",
        "ep"
      ],
      [
        "ĠBag",
        "man"
      ],
      [
        "c",
        "ent"
      ],
      [
        "le",
        "t"
      ],
      [
        "ĠW",
        "izard"
      ],
      [
        "Ġab",
        "ove"
      ],
      [
        "Ġsp",
        "r"
      ],
      [
        "ie",
        "ld"
      ],
      [
        "Ġtr",
        "ain"
      ],
      [
        "Ġpre",
        "s"
      ],
      [
        "Ġdro",
        "pped"
      ],
      [
        "Ġbe",
        "ll"
      ],
      [
        "Ġwit",
        "ch"
      ],
      [
        "ĠC",
        "rabbe"
      ],
      [
        "nt",
        "ly"
      ],
      [
        "Ġpare",
        "nts"
      ],
      [
        "a",
        "ff"
      ],
      [
        "Ġt",
        "ou"
      ],
      [
        "ing",
        "ing"
      ],
      [
        "ive",
        "ly"
      ],
      [
        "Th",
        "is"
      ],
      [
        "Ġsh",
        "ar"
      ],
      [
        "Ġno",
        "ise"
      ],
      [
        "Ġturn",
        "ing"
      ],
      [
        "ĠD",
        "raco"
      ],
      [
        "Ġr",
        "un"
      ],
      [
        "Ġag",
        "o"
      ],
      [
        "Ġal",
        "so"
      ],
      [
        "ĠCh",
        "arm"
      ],
      [
        "ĠDursley",
        "s"
      ],
      [
        "st",
        "airs"
      ],
      [
        "um",
        "ped"
      ],
      [
        "Ġnot",
        "iced"
      ],
      [
        "Ġsh",
        "all"
      ],
      [
        "Ġle",
        "ast"
      ],
      [
        "inn",
        "ing"
      ],
      [
        "Ġdark",
        "ness"
      ],
      [
        "e",
        "ak"
      ],
      [
        "Ġt",
        "imes"
      ],
      [
        "Ġst",
        "airs"
      ],
      [
        "ĠP",
        "r"
      ],
      [
        "Ġt",
        "ri"
      ],
      [
        "Ġw",
        "ide"
      ],
      [
        "Ġg",
        "as"
      ],
      [
        "Ġhur",
        "t"
      ],
      [
        "a",
        "x"
      ],
      [
        "Ġp",
        "ur"
      ],
      [
        "st",
        "r"
      ],
      [
        "Ġgo",
        "bl"
      ],
      [
        "Ġbene",
        "ath"
      ],
      [
        "Ġl",
        "ying"
      ],
      [
        "Ġex",
        "cept"
      ],
      [
        "up",
        "id"
      ],
      [
        "Ġent",
        "ered"
      ],
      [
        "Ġfore",
        "st"
      ],
      [
        "w",
        "o"
      ],
      [
        "in",
        "ation"
      ],
      [
        "Ġst",
        "eps"
      ],
      [
        "Ġcl",
        "ut"
      ],
      [
        "Ġgold",
        "en"
      ],
      [
        "c",
        "es"
      ],
      [
        "m",
        "as"
      ],
      [
        "Ġ",
        "round"
      ],
      [
        "Ġ\"",
        "âĢĶ"
      ],
      [
        "Ġf",
        "a"
      ],
      [
        "et",
        "s"
      ],
      [
        "ut",
        "h"
      ],
      [
        "ck",
        "on"
      ],
      [
        "P",
        "ro"
      ],
      [
        "Ġs",
        "us"
      ],
      [
        "Ġc",
        "up"
      ],
      [
        "ro",
        "ll"
      ],
      [
        "Ġre",
        "g"
      ],
      [
        "ĠE",
        "very"
      ],
      [
        "Ġdoor",
        "s"
      ],
      [
        "Ġapp",
        "ro"
      ],
      [
        "Ġfin",
        "ished"
      ],
      [
        "M",
        "y"
      ],
      [
        "is",
        "ing"
      ],
      [
        "Ġc",
        "arry"
      ],
      [
        "as",
        "on"
      ],
      [
        "Ġe",
        "ars"
      ],
      [
        "ap",
        "t"
      ],
      [
        "Ġfriend",
        "s"
      ],
      [
        "vis",
        "ibility"
      ],
      [
        "Ġlea",
        "ving"
      ],
      [
        "a",
        "ld"
      ],
      [
        "w",
        "ig"
      ],
      [
        "Ġw",
        "om"
      ],
      [
        "ou",
        "nt"
      ],
      [
        "Ġb",
        "urn"
      ],
      [
        "Ġe",
        "v"
      ],
      [
        "Ġso",
        "ft"
      ],
      [
        "art",
        "ment"
      ],
      [
        "ĠN",
        "ow"
      ],
      [
        "are",
        "ly"
      ],
      [
        "Ġche",
        "st"
      ],
      [
        "Ġche",
        "ck"
      ],
      [
        "r",
        "ist"
      ],
      [
        "Ġn",
        "erv"
      ],
      [
        "st",
        "er"
      ],
      [
        "Ġne",
        "are"
      ],
      [
        "Ġwho",
        "se"
      ],
      [
        "ab",
        "in"
      ],
      [
        "ĠIn",
        "visibility"
      ],
      [
        "Ġce",
        "iling"
      ],
      [
        "re",
        "n"
      ],
      [
        "Ġc",
        "ase"
      ],
      [
        "ro",
        "d"
      ],
      [
        "am",
        "ed"
      ],
      [
        "Ġsh",
        "ock"
      ],
      [
        "Ġple",
        "ase"
      ],
      [
        "E",
        "r"
      ],
      [
        "v",
        "o"
      ],
      [
        "Ġs",
        "umm"
      ],
      [
        "Ġe",
        "ar"
      ],
      [
        "ent",
        "y"
      ],
      [
        "Ġwr",
        "it"
      ],
      [
        "Ġtrou",
        "ble"
      ],
      [
        "rist",
        "mas"
      ],
      [
        "Ġt",
        "on"
      ],
      [
        "ed",
        "wig"
      ],
      [
        "ress",
        "ed"
      ],
      [
        "Ġground",
        "s"
      ],
      [
        "Ġreal",
        "ized"
      ],
      [
        "Ġstair",
        "case"
      ],
      [
        "Ġo",
        "pp"
      ],
      [
        "Ġd",
        "raw"
      ],
      [
        "Ġth",
        "rew"
      ],
      [
        "an",
        "ed"
      ],
      [
        "Ġst",
        "upid"
      ],
      [
        "Ġre",
        "pe"
      ],
      [
        "Ġsp",
        "l"
      ],
      [
        "ĠDe",
        "an"
      ],
      [
        "Ġquest",
        "ion"
      ],
      [
        "C",
        "ome"
      ],
      [
        "Ġc",
        "oll"
      ],
      [
        "Ġc",
        "ross"
      ],
      [
        "Ġcle",
        "ar"
      ],
      [
        "Ġfle",
        "w"
      ],
      [
        "Ġs",
        "ix"
      ],
      [
        "Ġman",
        "aged"
      ],
      [
        "Ġpr",
        "act"
      ],
      [
        "Ġarri",
        "ved"
      ],
      [
        "ĠT",
        "hat"
      ],
      [
        "ri",
        "ly"
      ],
      [
        "ĠCh",
        "ristmas"
      ],
      [
        "Ġleg",
        "s"
      ],
      [
        "st",
        "ick"
      ],
      [
        "Ġgi",
        "ant"
      ],
      [
        "Ġa",
        "p"
      ],
      [
        "Ġm",
        "id"
      ],
      [
        "ag",
        "es"
      ],
      [
        "ak",
        "es"
      ],
      [
        "at",
        "ri"
      ],
      [
        "Ġch",
        "ance"
      ],
      [
        "C",
        "HA"
      ],
      [
        "o",
        "ff"
      ],
      [
        "Ġ",
        "esc"
      ],
      [
        "Ġr",
        "unning"
      ],
      [
        "Ġmagic",
        "al"
      ],
      [
        "Ġpot",
        "ion"
      ],
      [
        "rif",
        "ied"
      ],
      [
        "bo",
        "ard"
      ],
      [
        "atri",
        "x"
      ],
      [
        "N",
        "ow"
      ],
      [
        "P",
        "TER"
      ],
      [
        "e",
        "ed"
      ],
      [
        "Ġm",
        "ad"
      ],
      [
        "Ġe",
        "as"
      ],
      [
        "Ġlook",
        "s"
      ],
      [
        "Ġclo",
        "ak"
      ],
      [
        "CHA",
        "PTER"
      ],
      [
        "u",
        "c"
      ],
      [
        "Ġt",
        "ent"
      ],
      [
        "ĠH",
        "edwig"
      ],
      [
        "Ġin",
        "t"
      ],
      [
        "ie",
        "f"
      ],
      [
        "ap",
        "er"
      ],
      [
        "Ġen",
        "orm"
      ],
      [
        "orm",
        "tail"
      ],
      [
        "Ġbec",
        "ame"
      ],
      [
        "Ġwall",
        "s"
      ],
      [
        "G",
        "ood"
      ],
      [
        "b",
        "us"
      ],
      [
        "u",
        "g"
      ],
      [
        "ri",
        "ll"
      ],
      [
        "ĠR",
        "e"
      ],
      [
        "ill",
        "ed"
      ],
      [
        "Ġgl",
        "anced"
      ],
      [
        "B",
        "e"
      ],
      [
        "is",
        "hing"
      ],
      [
        "as",
        "k"
      ],
      [
        "al",
        "m"
      ],
      [
        "Ġcl",
        "imb"
      ],
      [
        "Ġimp",
        "ort"
      ],
      [
        "Ġwindow",
        "s"
      ],
      [
        "Ġglass",
        "es"
      ],
      [
        "Ġvan",
        "ished"
      ],
      [
        "g",
        "er"
      ],
      [
        "w",
        "ork"
      ],
      [
        "Ġc",
        "reat"
      ],
      [
        "Ġsay",
        "s"
      ],
      [
        "Ġlong",
        "er"
      ],
      [
        "Ġeven",
        "ing"
      ],
      [
        "Ġexp",
        "ression"
      ],
      [
        "ĠH",
        "er"
      ],
      [
        "Ġe",
        "ff"
      ],
      [
        "us",
        "ed"
      ],
      [
        "Ġno",
        "body"
      ],
      [
        "Ġwor",
        "ld"
      ],
      [
        "Ġatt",
        "ack"
      ],
      [
        "ĠBell",
        "atrix"
      ],
      [
        "A",
        "ll"
      ],
      [
        "Ġw",
        "arn"
      ],
      [
        "ing",
        "ly"
      ],
      [
        "Ġc",
        "ertain"
      ],
      [
        "us",
        "h"
      ],
      [
        "ol",
        "t"
      ],
      [
        "Ġpre",
        "ss"
      ],
      [
        "Ġwom",
        "an"
      ],
      [
        "Ġ",
        "er"
      ],
      [
        "Ġp",
        "ict"
      ],
      [
        "Ġse",
        "ized"
      ],
      [
        "Ġforg",
        "ot"
      ],
      [
        "s",
        "er"
      ],
      [
        "Ġs",
        "on"
      ],
      [
        "Ġc",
        "ent"
      ],
      [
        "Ġwith",
        "in"
      ],
      [
        "Ġtr",
        "unk"
      ],
      [
        "Ġem",
        "er"
      ],
      [
        "Ġmat",
        "ch"
      ],
      [
        "Pro",
        "fessor"
      ],
      [
        "Ġo",
        "cc"
      ],
      [
        "id",
        "ent"
      ],
      [
        "ie",
        "w"
      ],
      [
        "Ġwal",
        "king"
      ],
      [
        "Ġper",
        "haps"
      ],
      [
        "O",
        "R"
      ],
      [
        "Ġp",
        "ie"
      ],
      [
        "Ġin",
        "form"
      ],
      [
        "ĠW",
        "ith"
      ],
      [
        "ĠW",
        "ormtail"
      ],
      [
        "Ġme",
        "ant"
      ],
      [
        "Ġnumb",
        "er"
      ],
      [
        "Ġenorm",
        "ous"
      ],
      [
        "l",
        "ooking"
      ],
      [
        "in",
        "ted"
      ],
      [
        "Ġh",
        "op"
      ],
      [
        "Ġre",
        "ady"
      ],
      [
        "Ġbr",
        "other"
      ],
      [
        "b",
        "ably"
      ],
      [
        "k",
        "es"
      ],
      [
        "l",
        "in"
      ],
      [
        "r",
        "up"
      ],
      [
        "Ġf",
        "if"
      ],
      [
        "ĠH",
        "ouse"
      ],
      [
        "Ġth",
        "r"
      ],
      [
        "Ġch",
        "o"
      ],
      [
        "og",
        "n"
      ],
      [
        "Ġsw",
        "ord"
      ],
      [
        "Ġb",
        "ar"
      ],
      [
        "Ġl",
        "uck"
      ],
      [
        "ĠW",
        "ood"
      ],
      [
        "ĠPro",
        "phe"
      ],
      [
        "Ġpull",
        "ing"
      ],
      [
        "Ġkn",
        "own"
      ],
      [
        "Ġle",
        "ad"
      ],
      [
        "O",
        "N"
      ],
      [
        "Ġ",
        "ve"
      ],
      [
        "Ġth",
        "in"
      ],
      [
        "Ġher",
        "self"
      ],
      [
        "ĠO",
        "ne"
      ],
      [
        "Ġfin",
        "ally"
      ],
      [
        "Ġsaf",
        "e"
      ],
      [
        "W",
        "here"
      ],
      [
        "ĠC",
        "r"
      ],
      [
        "Ġw",
        "ood"
      ],
      [
        "re",
        "ly"
      ],
      [
        "Ġe",
        "lf"
      ],
      [
        "am",
        "us"
      ],
      [
        "pe",
        "ct"
      ],
      [
        "ink",
        "ing"
      ],
      [
        "Ġknow",
        "s"
      ],
      [
        "Ġhapp",
        "y"
      ],
      [
        "Ġang",
        "rily"
      ],
      [
        "Ġ",
        "ign"
      ],
      [
        "Ġas",
        "s"
      ],
      [
        "al",
        "s"
      ],
      [
        "ĠP",
        "at"
      ],
      [
        "Ġsh",
        "ad"
      ],
      [
        "ain",
        "ing"
      ],
      [
        "Ġbel",
        "ow"
      ],
      [
        "Ġkill",
        "ed"
      ],
      [
        "Ġf",
        "ig"
      ],
      [
        "an",
        "ing"
      ],
      [
        "Ġwand",
        "s"
      ],
      [
        "ation",
        "s"
      ],
      [
        "ĠJ",
        "ames"
      ],
      [
        "Ġang",
        "ry"
      ],
      [
        "Ġremem",
        "b"
      ],
      [
        "Ġbro",
        "ken"
      ],
      [
        "Ġlist",
        "ening"
      ],
      [
        "Ġton",
        "ight"
      ],
      [
        "k",
        "ab"
      ],
      [
        "n",
        "ot"
      ],
      [
        "z",
        "kab"
      ],
      [
        "Ġo",
        "kay"
      ],
      [
        "Ġha",
        "ng"
      ],
      [
        "ic",
        "es"
      ],
      [
        "ĠS",
        "h"
      ],
      [
        "unn",
        "y"
      ],
      [
        "Ġjo",
        "b"
      ],
      [
        "Ġinst",
        "ead"
      ],
      [
        "ĠAr",
        "ts"
      ],
      [
        "Ġrec",
        "ogn"
      ],
      [
        "zkab",
        "an"
      ],
      [
        "nd",
        "ing"
      ],
      [
        "Ġc",
        "ir"
      ],
      [
        "rou",
        "ght"
      ],
      [
        "Ġsm",
        "iling"
      ],
      [
        "ect",
        "ion"
      ],
      [
        "Ġbro",
        "ke"
      ],
      [
        "Ġfly",
        "ing"
      ],
      [
        "Ġs",
        "un"
      ],
      [
        "Ġc",
        "ut"
      ],
      [
        "Ġth",
        "ro"
      ],
      [
        "Ġp",
        "ale"
      ],
      [
        "Ġin",
        "v"
      ],
      [
        "Ġfl",
        "at"
      ],
      [
        "Ġcle",
        "arly"
      ],
      [
        "ĠSe",
        "amus"
      ],
      [
        "Ġwee",
        "k"
      ],
      [
        "ĠAl",
        "bus"
      ],
      [
        "Ġcomplete",
        "ly"
      ],
      [
        "A",
        "n"
      ],
      [
        "o",
        "om"
      ],
      [
        "u",
        "b"
      ],
      [
        "re",
        "ll"
      ],
      [
        "Ġb",
        "at"
      ],
      [
        "is",
        "k"
      ],
      [
        "ch",
        "o"
      ],
      [
        "ĠP",
        "ar"
      ],
      [
        "ĠA",
        "g"
      ],
      [
        "are",
        "ntly"
      ],
      [
        "Ġhead",
        "s"
      ],
      [
        "ĠE",
        "ater"
      ],
      [
        "Ġtr",
        "ue"
      ],
      [
        "D",
        "id"
      ],
      [
        "Ġe",
        "gg"
      ],
      [
        "al",
        "ed"
      ],
      [
        "ĠA",
        "zkaban"
      ],
      [
        "ink",
        "y"
      ],
      [
        "Ġno",
        "dded"
      ],
      [
        "ick",
        "ing"
      ],
      [
        "Ġsecond",
        "s"
      ],
      [
        "cl",
        "aw"
      ],
      [
        "Ġless",
        "on"
      ],
      [
        "Ġdrag",
        "on"
      ],
      [
        "aven",
        "claw"
      ],
      [
        "c",
        "ause"
      ],
      [
        "w",
        "h"
      ],
      [
        "Ġany",
        "way"
      ],
      [
        "Ġhead",
        "m"
      ],
      [
        "Ġsupp",
        "ose"
      ],
      [
        "Ġvis",
        "it"
      ],
      [
        "L",
        "ook"
      ],
      [
        "r",
        "im"
      ],
      [
        "t",
        "ly"
      ],
      [
        "ĠW",
        "ell"
      ],
      [
        "Ġback",
        "ward"
      ],
      [
        "inn",
        "er"
      ],
      [
        "Ġtre",
        "es"
      ],
      [
        "ĠProphe",
        "t"
      ],
      [
        "Ġ",
        "z"
      ],
      [
        "ou",
        "l"
      ],
      [
        "ar",
        "row"
      ],
      [
        "is",
        "on"
      ],
      [
        "Ġto",
        "r"
      ],
      [
        "Ġm",
        "ention"
      ],
      [
        "Ġe",
        "cho"
      ],
      [
        "Ġre",
        "ason"
      ],
      [
        "Ġmem",
        "ory"
      ],
      [
        "ĠSn",
        "itch"
      ],
      [
        "Ġrepe",
        "ated"
      ],
      [
        "E",
        "x"
      ],
      [
        "Ġb",
        "all"
      ],
      [
        "Ġm",
        "iss"
      ],
      [
        "Ġl",
        "ed"
      ],
      [
        "ĠR",
        "avenclaw"
      ],
      [
        "Ġsh",
        "ow"
      ],
      [
        "Ġmon",
        "th"
      ],
      [
        "Ġ",
        "ill"
      ],
      [
        "Ġ",
        "ought"
      ],
      [
        "Ġb",
        "arely"
      ],
      [
        "Ġth",
        "row"
      ],
      [
        "Ġst",
        "ret"
      ],
      [
        "ĠS",
        "ever"
      ],
      [
        "ain",
        "s"
      ],
      [
        "ĠMagic",
        "al"
      ],
      [
        "Ġwh",
        "om"
      ],
      [
        "Ġre",
        "ckon"
      ],
      [
        "ĠE",
        "r"
      ],
      [
        "Ġim",
        "ag"
      ],
      [
        "Ġdis",
        "c"
      ],
      [
        "id",
        "er"
      ],
      [
        "Ġfor",
        "ced"
      ],
      [
        "Ġle",
        "arn"
      ],
      [
        "Ġtear",
        "s"
      ],
      [
        "D",
        "umbledore"
      ],
      [
        "R",
        "on"
      ],
      [
        "g",
        "hed"
      ],
      [
        "i",
        "ke"
      ],
      [
        "Ġa",
        "head"
      ],
      [
        "Ġst",
        "ory"
      ],
      [
        "Ġsh",
        "ot"
      ],
      [
        "un",
        "ch"
      ],
      [
        "Ġsc",
        "r"
      ],
      [
        "Ġstr",
        "ange"
      ],
      [
        "Ġdou",
        "b"
      ],
      [
        "Ġm",
        "ir"
      ],
      [
        "Ġg",
        "le"
      ],
      [
        "Ġr",
        "at"
      ],
      [
        "Ġsk",
        "y"
      ],
      [
        "ĠMugg",
        "les"
      ],
      [
        "Ġhor",
        "rible"
      ],
      [
        "auld",
        "ron"
      ],
      [
        "H",
        "ermione"
      ],
      [
        "in",
        "ess"
      ],
      [
        "Ġh",
        "idden"
      ],
      [
        "or",
        "ted"
      ],
      [
        "or",
        "row"
      ],
      [
        "Ġp",
        "air"
      ],
      [
        "Ġgi",
        "ving"
      ],
      [
        "Ġbo",
        "x"
      ],
      [
        "Ġdiffere",
        "nt"
      ],
      [
        "S",
        "t"
      ],
      [
        "Ġb",
        "ig"
      ],
      [
        "Ġqu",
        "ill"
      ],
      [
        "Ġhour",
        "s"
      ],
      [
        "Ġw",
        "ing"
      ],
      [
        "Ġb",
        "ow"
      ],
      [
        "Ġbl",
        "ank"
      ],
      [
        "ĠE",
        "x"
      ],
      [
        "Ġhapp",
        "en"
      ],
      [
        "Ġsna",
        "pped"
      ],
      [
        "A",
        "R"
      ],
      [
        "is",
        "ted"
      ],
      [
        "it",
        "ion"
      ],
      [
        "it",
        "ted"
      ],
      [
        "Ġc",
        "abin"
      ],
      [
        "Ġd",
        "orm"
      ],
      [
        "Ġm",
        "iddle"
      ],
      [
        "Ġl",
        "ake"
      ],
      [
        "im",
        "m"
      ],
      [
        "ook",
        "sh"
      ],
      [
        "Ġcon",
        "s"
      ],
      [
        "Ġste",
        "pped"
      ],
      [
        "Ġimport",
        "ant"
      ],
      [
        "ooksh",
        "anks"
      ],
      [
        "Ġ",
        "ir"
      ],
      [
        "ar",
        "off"
      ],
      [
        "at",
        "es"
      ],
      [
        "Ġan",
        "x"
      ],
      [
        "Ġfe",
        "ar"
      ],
      [
        "ĠC",
        "up"
      ],
      [
        "ark",
        "aroff"
      ],
      [
        "less",
        "ly"
      ],
      [
        "Ġs",
        "ing"
      ],
      [
        "at",
        "ur"
      ],
      [
        "it",
        "a"
      ],
      [
        "Ġc",
        "op"
      ],
      [
        "Ġth",
        "ird"
      ],
      [
        "an",
        "cing"
      ],
      [
        "om",
        "f"
      ],
      [
        "ĠN",
        "ot"
      ],
      [
        "Ġbl",
        "ue"
      ],
      [
        "Ġtr",
        "uth"
      ],
      [
        "ee",
        "ves"
      ],
      [
        "Ġf",
        "re"
      ],
      [
        "Ġe",
        "ag"
      ],
      [
        "ap",
[...]
